<unk>	0
<0x00>	0
<0x01>	0
<0x02>	0
<0x03>	0
<0x04>	0
<0x05>	0
<0x06>	0
<0x07>	0
<0x08>	0
<0x09>	0
<0x0A>	0
<0x0B>	0
<0x0C>	0
<0x0D>	0
<0x0E>	0
<0x0F>	0
<0x10>	0
<0x11>	0
<0x12>	0
<0x13>	0
<0x14>	0
<0x15>	0
<0x16>	0
<0x17>	0
<0x18>	0
<0x19>	0
<0x1A>	0
<0x1B>	0
<0x1C>	0
<0x1D>	0
<0x1E>	0
<0x1F>	0
<0x20>	0
<0x21>	0
<0x22>	0
<0x23>	0
<0x24>	0
<0x25>	0
<0x26>	0
<0x27>	0
<0x28>	0
<0x29>	0
<0x2A>	0
<0x2B>	0
<0x2C>	0
<0x2D>	0
<0x2E>	0
<0x2F>	0
<0x30>	0
<0x31>	0
<0x32>	0
<0x33>	0
<0x34>	0
<0x35>	0
<0x36>	0
<0x37>	0
<0x38>	0
<0x39>	0
<0x3A>	0
<0x3B>	0
<0x3C>	0
<0x3D>	0
<0x3E>	0
<0x3F>	0
<0x40>	0
<0x41>	0
<0x42>	0
<0x43>	0
<0x44>	0
<0x45>	0
<0x46>	0
<0x47>	0
<0x48>	0
<0x49>	0
<0x4A>	0
<0x4B>	0
<0x4C>	0
<0x4D>	0
<0x4E>	0
<0x4F>	0
<0x50>	0
<0x51>	0
<0x52>	0
<0x53>	0
<0x54>	0
<0x55>	0
<0x56>	0
<0x57>	0
<0x58>	0
<0x59>	0
<0x5A>	0
<0x5B>	0
<0x5C>	0
<0x5D>	0
<0x5E>	0
<0x5F>	0
<0x60>	0
<0x61>	0
<0x62>	0
<0x63>	0
<0x64>	0
<0x65>	0
<0x66>	0
<0x67>	0
<0x68>	0
<0x69>	0
<0x6A>	0
<0x6B>	0
<0x6C>	0
<0x6D>	0
<0x6E>	0
<0x6F>	0
<0x70>	0
<0x71>	0
<0x72>	0
<0x73>	0
<0x74>	0
<0x75>	0
<0x76>	0
<0x77>	0
<0x78>	0
<0x79>	0
<0x7A>	0
<0x7B>	0
<0x7C>	0
<0x7D>	0
<0x7E>	0
<0x7F>	0
<0x80>	0
<0x81>	0
<0x82>	0
<0x83>	0
<0x84>	0
<0x85>	0
<0x86>	0
<0x87>	0
<0x88>	0
<0x89>	0
<0x8A>	0
<0x8B>	0
<0x8C>	0
<0x8D>	0
<0x8E>	0
<0x8F>	0
<0x90>	0
<0x91>	0
<0x92>	0
<0x93>	0
<0x94>	0
<0x95>	0
<0x96>	0
<0x97>	0
<0x98>	0
<0x99>	0
<0x9A>	0
<0x9B>	0
<0x9C>	0
<0x9D>	0
<0x9E>	0
<0x9F>	0
<0xA0>	0
<0xA1>	0
<0xA2>	0
<0xA3>	0
<0xA4>	0
<0xA5>	0
<0xA6>	0
<0xA7>	0
<0xA8>	0
<0xA9>	0
<0xAA>	0
<0xAB>	0
<0xAC>	0
<0xAD>	0
<0xAE>	0
<0xAF>	0
<0xB0>	0
<0xB1>	0
<0xB2>	0
<0xB3>	0
<0xB4>	0
<0xB5>	0
<0xB6>	0
<0xB7>	0
<0xB8>	0
<0xB9>	0
<0xBA>	0
<0xBB>	0
<0xBC>	0
<0xBD>	0
<0xBE>	0
<0xBF>	0
<0xC0>	0
<0xC1>	0
<0xC2>	0
<0xC3>	0
<0xC4>	0
<0xC5>	0
<0xC6>	0
<0xC7>	0
<0xC8>	0
<0xC9>	0
<0xCA>	0
<0xCB>	0
<0xCC>	0
<0xCD>	0
<0xCE>	0
<0xCF>	0
<0xD0>	0
<0xD1>	0
<0xD2>	0
<0xD3>	0
<0xD4>	0
<0xD5>	0
<0xD6>	0
<0xD7>	0
<0xD8>	0
<0xD9>	0
<0xDA>	0
<0xDB>	0
<0xDC>	0
<0xDD>	0
<0xDE>	0
<0xDF>	0
<0xE0>	0
<0xE1>	0
<0xE2>	0
<0xE3>	0
<0xE4>	0
<0xE5>	0
<0xE6>	0
<0xE7>	0
<0xE8>	0
<0xE9>	0
<0xEA>	0
<0xEB>	0
<0xEC>	0
<0xED>	0
<0xEE>	0
<0xEF>	0
<0xF0>	0
<0xF1>	0
<0xF2>	0
<0xF3>	0
<0xF4>	0
<0xF5>	0
<0xF6>	0
<0xF7>	0
<0xF8>	0
<0xF9>	0
<0xFA>	0
<0xFB>	0
<0xFC>	0
<0xFD>	0
<0xFE>	0
<0xFF>	0
in	-0
ər	-1
ar	-2
an	-3
də	-4
ir	-5
▁b	-6
il	-7
ın	-8
mə	-9
da	-10
▁s	-11
▁o	-12
al	-13
▁v	-14
iy	-15
lər	-16
ən	-17
lar	-18
▁t	-19
▁q	-20
▁k	-21
ay	-22
▁y	-23
▁e	-24
ət	-25
un	-26
▁m	-27
▁d	-28
▁h	-29
▁g	-30
▁i	-31
as	-32
əl	-33
əs	-34
di	-35
at	-36
er	-37
ün	-38
dı	-39
▁və	-40
aq	-41
▁ol	-42
am	-43
az	-44
ur	-45
st	-46
li	-47
▁A	-48
dən	-49
dir	-50
mi	-51
lə	-52
ey	-53
▁ki	-54
▁mə	-55
▁B	-56
▁n	-57
aş	-58
lı	-59
▁a	-60
ək	-61
▁ç	-62
▁il	-63
on	-64
ib	-65
əm	-66
iz	-67
▁mü	-68
▁da	-69
dan	-70
▁M	-71
ır	-72
lərin	-73
▁bir	-74
▁gö	-75
ik	-76
▁də	-77
ağ	-78
▁ü	-79
▁p	-80
▁ş	-81
en	-82
▁x	-83
əy	-84
əb	-85
▁ö	-86
iyy	-87
ah	-88
or	-89
əh	-90
si	-91
ab	-92
ların	-93
ində	-94
ul	-95
ax	-96
ür	-97
dır	-98
inin	-99
ış	-100
im	-101
▁r	-102
zər	-103
ak	-104
▁S	-105
▁İ	-106
asın	-107
▁bu	-108
▁f	-109
▁et	-110
ol	-111
ləri	-112
eç	-113
▁c	-114
um	-115
əd	-116
▁1	-117
la	-118
ası	-119
▁ver	-120
▁bil	-121
is	-122
inə	-123
ub	-124
es	-125
▁on	-126
ini	-127
əf	-128
▁ilə	-129
öv	-130
ox	-131
anın	-132
iyyət	-133
▁Q	-134
▁H	-135
id	-136
mək	-137
du	-138
bay	-139
ac	-140
ları	-141
▁“	-142
▁gör	-143
bayc	-144
et	-145
dil	-146
ki	-147
▁T	-148
miş	-149
ıl	-150
it	-151
ov	-152
sə	-153
▁in	-154
zərbayc	-155
▁ar	-156
ra	-157
▁baş	-158
iya	-159
ıb	-160
▁iş	-161
▁D	-162
us	-163
▁ist	-164
əc	-165
iq	-166
ız	-167
ad	-168
▁R	-169
▁O	-170
▁2	-171
əz	-172
▁Azərbayc	-173
▁Ə	-174
av	-175
▁al	-176
ma	-177
▁K	-178
▁N	-179
ev	-180
ci	-181
ədə	-182
▁üç	-183
▁z	-184
lik	-185
lan	-186
üş	-187
liy	-188
ük	-189
iş	-190
▁dey	-191
if	-192
ında	-193
▁üçün	-194
ım	-195
▁Azərbaycan	-196
▁(	-197
▁mən	-198
▁edil	-199
▁əs	-200
uş	-201
mət	-202
cə	-203
▁P	-204
indən	-205
▁olm	-206
ıq	-207
▁öz	-208
▁ə	-209
ro	-210
▁olun	-211
▁əl	-212
▁keç	-213
üm	-214
alar	-215
▁hər	-216
▁tər	-217
▁son	-218
▁E	-219
▁nə	-220
ut	-221
diy	-222
ül	-223
▁tə	-224
əsi	-225
▁Bu	-226
ek	-227
▁yer	-228
lu	-229
▁Y	-230
▁gəl	-231
şı	-232
lıq	-233
af	-234
▁çox	-235
▁olan	-236
▁öl	-237
əti	-238
▁var	-239
▁yar	-240
el	-241
uz	-242
▁qar	-243
ının	-244
ını	-245
▁gün	-246
ent	-247
▁edir	-248
məy	-249
ıx	-250
ni	-251
▁kimi	-252
lət	-253
oy	-254
öy	-255
ına	-256
ilər	-257
lən	-258
mış	-259
▁Ş	-260
▁X	-261
em	-262
unun	-263
alı	-264
▁G	-265
məsi	-266
kə	-267
▁görə	-268
lay	-269
adə	-270
anı	-271
▁C	-272
dur	-273
ada	-274
maq	-275
ması	-276
üt	-277
əx	-278
ari	-279
asında	-280
▁üz	-281
om	-282
▁-	-283
üz	-284
ter	-285
▁döv	-286
çı	-287
ğı	-288
▁qal	-289
▁—	-290
əsində	-291
dim	-292
unu	-293
▁həm	-294
▁oldu	-295
▁tərəf	-296
miz	-297
ap	-298
▁bağ	-299
gər	-300
▁çıx	-301
▁F	-302
ez	-303
▁ay	-304
▁ər	-305
▁isə	-306
▁sonra	-307
eyd	-308
ləş	-309
▁de	-310
üs	-311
ilə	-312
san	-313
elə	-314
▁olar	-315
dib	-316
lam	-317
sa	-318
▁V	-319
▁az	-320
pr	-321
▁keçir	-322
ess	-323
▁yol	-324
ılı	-325
▁20	-326
öz	-327
ələr	-328
əq	-329
daş	-330
▁düş	-331
▁yax	-332
lum	-333
üb	-334
məs	-335
lərinin	-336
▁yaş	-337
asının	-338
vv	-339
ya	-340
acaq	-341
▁3	-342
stan	-343
ənin	-344
▁məh	-345
▁pro	-346
dar	-347
▁məs	-348
diril	-349
▁u	-350
rmə	-351
▁İn	-352
iv	-353
▁zam	-354
araq	-355
diyi	-356
ha	-357
▁an	-358
▁edib	-359
sı	-360
▁at	-361
▁L	-362
▁məlum	-363
▁biz	-364
▁l	-365
▁yaz	-366
par	-367
əhər	-368
axt	-369
aya	-370
alq	-371
rə	-372
əcək	-373
iyyat	-374
▁ge	-375
adi	-376
▁bar	-377
▁onun	-378
laş	-379
▁deyil	-380
▁yen	-381
stər	-382
kt	-383
ru	-384
▁yox	-385
▁daha	-386
man	-387
ürk	-388
▁On	-389
uq	-390
ran	-391
azir	-392
lara	-393
▁göstər	-394
press	-395
ağı	-396
ədər	-397
▁or	-398
▁göz	-399
▁bağlı	-400
▁edə	-401
mir	-402
ri	-403
terpress	-404
əfər	-405
▁19	-406
▁qarşı	-407
▁idi	-408
▁bax	-409
sin	-410
cü	-411
▁ad	-412
▁art	-413
▁məlumat	-414
▁dər	-415
▁əsas	-416
▁im	-417
lərini	-418
ütün	-419
əli	-420
bi	-421
▁təs	-422
▁qədər	-423
▁Ç	-424
▁sən	-425
larının	-426
▁elə	-427
▁həy	-428
rməni	-429
▁sah	-430
▁olduğ	-431
▁şəx	-432
ələ	-433
oğ	-434
iyə	-435
una	-436
ekt	-437
▁qur	-438
lərinə	-439
▁oğ	-440
ör	-441
▁söz	-442
əbər	-443
▁apar	-444
kil	-445
▁"	-446
▁təh	-447
▁veril	-448
ist	-449
00	-450
dər	-451
▁ic	-452
▁dövlət	-453
eh	-454
xt	-455
akı	-456
▁yan	-457
ayon	-458
azır	-459
▁belə	-460
▁di	-461
öyük	-462
▁ağ	-463
▁təş	-464
dım	-465
▁bilər	-466
▁xəbər	-467
asına	-468
▁say	-469
eyn	-470
dik	-471
▁hü	-472
kı	-473
▁qay	-474
▁U	-475
ayət	-476
▁tut	-477
ezid	-478
▁heç	-479
▁dəy	-480
ezident	-481
arix	-482
dü	-483
lərə	-484
ağa	-485
▁haq	-486
▁vəz	-487
▁həyat	-488
əsinin	-489
▁bildir	-490
▁verir	-491
əş	-492
▁aç	-493
▁tərəfindən	-494
lərdə	-495
anda	-496
▁etmək	-497
▁mil	-498
ləy	-499
▁Mən	-500
adı	-501
▁Rus	-502
▁barədə	-503
əmin	-504
esp	-505
ublik	-506
yan	-507
əyə	-508
▁müh	-509
▁olaraq	-510
rezident	-511
bir	-512
▁Bir	-513
\”	-514
espublik	-515
▁yeni	-516
məyə	-517
▁su	-518
▁bütün	-519
oş	-520
▁ölkə	-521
▁ən	-522
▁4	-523
ök	-524
ili	-525
tir	-526
▁əraz	-527
▁olub	-528
cu	-529
▁–	-530
▁vaxt	-531
▁keçiril	-532
liyi	-533
▁təl	-534
▁tarix	-535
lü	-536
ından	-537
▁mər	-538
▁Z	-539
ətən	-540
fi	-541
▁ildə	-542
▁ya	-543
▁şəhər	-544
▁po	-545
▁qeyd	-546
▁çək	-547
əv	-548
▁üzrə	-549
siy	-550
ta	-551
▁5	-552
▁bur	-553
▁iki	-554
▁edən	-555
▁re	-556
anış	-557
may	-558
▁böyük	-559
iyyəti	-560
arət	-561
▁rayon	-562
lərində	-563
lığ	-564
dam	-565
öh	-566
İn	-567
eri	-568
▁el	-569
əni	-570
▁qan	-571
əyy	-572
▁insan	-573
▁sər	-574
orm	-575
▁dün	-576
▁nəti	-577
▁təd	-578
▁qoy	-579
muş	-580
ram	-581
▁his	-582
caq	-583
▁şər	-584
art	-585
▁qəb	-586
▁şəxs	-587
dür	-588
▁hal	-589
quq	-590
▁haqq	-591
▁fə	-592
cı	-593
▁Respublik	-594
ənd	-595
vvəl	-596
▁möv	-597
unda	-598
▁hazır	-599
▁ne	-600
undan	-601
tab	-602
idmət	-603
▁tək	-604
lük	-605
▁təşkil	-606
▁dav	-607
asiya	-608
▁arasında	-609
öl	-610
esab	-611
bər	-612
larını	-613
▁Türk	-614
mişdir	-615
arı	-616
məli	-617
ti	-618
▁Bakı	-619
▁fəal	-620
▁Al	-621
▁qər	-622
▁ev	-623
▁əh	-624
os	-625
▁vur	-626
▁Erməni	-627
inci	-628
ob	-629
dilər	-630
▁mün	-631
▁min	-632
ca	-633
olo	-634
liyev	-635
▁kitab	-636
▁çat	-637
əndə	-638
▁id	-639
akin	-640
▁siy	-641
əst	-642
op	-643
▁nəfər	-644
ifadə	-645
na	-646
izə	-647
▁hüquq	-648
▁Qar	-649
məd	-650
qa	-651
▁ox	-652
larda	-653
kar	-654
▁qəbul	-655
ırdı	-656
siz	-657
eş	-658
avab	-659
▁tap	-660
0-	-661
▁digər	-662
▁dəf	-663
▁əvvəl	-664
lah	-665
ünü	-666
İnterpress	-667
ön	-668
▁Əliyev	-669
▁hesab	-670
▁oğlu	-671
dığı	-672
əng	-673
▁danış	-674
▁istifadə	-675
▁dax	-676
▁məq	-677
▁Nazir	-678
▁av	-679
ot	-680
asını	-681
▁am	-682
əyyən	-683
dət	-684
▁qız	-685
▁nəzər	-686
..	-687
▁gü	-688
aç	-689
▁davam	-690
▁yük	-691
▁səb	-692
▁həmin	-693
lardan	-694
bət	-695
əzi	-696
▁uz	-697
▁şey	-698
irdi	-699
▁adam	-700
əlli	-701
▁aş	-702
▁onu	-703
alan	-704
çi	-705
▁əlaq	-706
usi	-707
kr	-708
mən	-709
▁şək	-710
atı	-711
kiş	-712
▁tələb	-713
rup	-714
▁müəyyən	-715
sən	-716
qt	-717
▁dil	-718
▁6	-719
▁xalq	-720
▁haqqında	-721
ənc	-722
▁yay	-723
▁Prezident	-724
xan	-725
▁İs	-726
sil	-727
▁olur	-728
ərək	-729
kişaf	-730
▁Ö	-731
ılıb	-732
▁st	-733
▁fik	-734
larına	-735
ed	-736
▁laz	-737
abr	-738
▁əmək	-739
adan	-740
▁siyas	-741
▁xüs	-742
▁sax	-743
▁tam	-744
▁ona	-745
dığ	-746
▁istəy	-747
▁Rusiya	-748
van	-749
aşdır	-750
▁iştir	-751
▁səbəb	-752
▁yaxın	-753
ələri	-754
▁dəyiş	-755
▁An	-756
uy	-757
▁kim	-758
▁Am	-759
▁cavab	-760
▁7	-761
▁təq	-762
ünə	-763
məl	-764
lərdən	-765
kən	-766
əsinə	-767
▁nüm	-768
▁get	-769
ətir	-770
▁ilk	-771
▁dövr	-772
ud	-773
▁biri	-774
▁müd	-775
▁hiss	-776
məz	-777
▁nətic	-778
akt	-779
tim	-780
▁kö	-781
▁ey	-782
asib	-783
▁sal	-784
▁edilib	-785
▁inkişaf	-786
ılm	-787
”,	-788
▁bildirib	-789
▁qiy	-790
ündə	-791
ğun	-792
19	-793
▁qaz	-794
per	-795
ılması	-796
aat	-797
gi	-798
▁sür	-799
▁böl	-800
▁kəs	-801
▁xidmət	-802
▁man	-803
▁rəh	-804
tür	-805
▁iç	-806
▁İl	-807
▁vətən	-808
əyi	-809
▁zaman	-810
▁dol	-811
▁daxil	-812
rı	-813
övlət	-814
▁uş	-815
edi	-816
▁bər	-817
▁seç	-818
NA	-819
▁tədbir	-820
ığ	-821
raf	-822
osi	-823
”.	-824
▁dəfə	-825
iyyə	-826
▁ir	-827
▁Av	-828
▁qiymət	-829
din	-830
ansı	-831
▁yaxşı	-832
ılan	-833
▁kom	-834
▁gətir	-835
▁mad	-836
▁məsəl	-837
▁Ermənistan	-838
▁Mü	-839
▁başqa	-840
▁doğ	-841
lərindən	-842
▁üst	-843
▁ölk	-844
ham	-845
▁lazım	-846
luq	-847
lis	-848
▁münasib	-849
▁alın	-850
▁eh	-851
ımız	-852
▁fəaliyyət	-853
xalq	-854
▁qor	-855
▁iştirak	-856
eynəl	-857
ux	-858
▁Biz	-859
▁gen	-860
ərq	-861
rop	-862
▁mal	-863
ic	-864
ait	-865
abağ	-866
mağa	-867
eynəlxalq	-868
▁yüks	-869
dıq	-870
▁artıq	-871
▁təmin	-872
sız	-873
▁açıq	-874
▁Azərbaycanın	-875
▁düny	-876
▁nazir	-877
▁onların	-878
▁Ü	-879
larında	-880
iyanın	-881
▁dəst	-882
arib	-883
▁rəhbər	-884
əlik	-885
▁hərbi	-886
▁çal	-887
▁yaşay	-888
üvv	-889
▁hadi	-890
▁güc	-891
▁yaradı	-892
▁8	-893
amət	-894
▁qərar	-895
lərlə	-896
mişdi	-897
inayət	-898
▁qanun	-899
▁qrup	-900
▁Ar	-901
▁üm	-902
▁AY	-903
▁məkt	-904
▁təb	-905
ətin	-906
irəm	-907
asit	-908
▁ax	-909
orp	-910
ğu	-911
üf	-912
▁olacaq	-913
qiq	-914
▁şəkil	-915
aları	-916
əsiz	-917
larla	-918
ğul	-919
bu	-920
▁zamanı	-921
ılır	-922
amı	-923
▁AYNA	-924
▁oy	-925
▁Məh	-926
▁El	-927
ina	-928
▁növ	-929
▁yerləş	-930
▁sev	-931
▁yet	-932
▁Dövlət	-933
▁zər	-934
▁alt	-935
▁əməl	-936
alam	-937
lığı	-938
▁olmuş	-939
min	-940
▁Ağ	-941
▁yoxdur	-942
▁pros	-943
▁te	-944
irlər	-945
▁olduğu	-946
dakı	-947
▁Baş	-948
▁həyata	-949
ok	-950
laşdır	-951
▁hansı	-952
▁deyə	-953
akim	-954
ji	-955
ilik	-956
▁çıxar	-957
▁müddət	-958
rac	-959
səd	-960
▁ilin	-961
▁münasibət	-962
əmiyyət	-963
▁hərək	-964
bl	-965
▁əsasən	-966
▁düz	-967
ih	-968
əyin	-969
sun	-970
▁kənd	-971
əsini	-972
▁sil	-973
▁olunub	-974
▁İnterpress	-975
qtis	-976
▁olduğunu	-977
qan	-978
iət	-979
20	-980
▁kon	-981
▁vasit	-982
1-	-983
▁ək	-984
▁ot	-985
▁hök	-986
arici	-987
kan	-988
sın	-989
▁9	-990
ilən	-991
ef	-992
▁müq	-993
illi	-994
ədən	-995
dafi	-996
▁par	-997
▁pul	-998
əll	-999
5-	-1000
▁müb	-1001
əlif	-1002
▁lay	-1003
osial	-1004
əmməd	-1005
▁do	-1006
▁\”	-1007
▁edək	-1008
▁götür	-1009
ver	-1010
▁nümay	-1011
ünki	-1012
▁əməkdaş	-1013
▁vəziyyət	-1014
▁edər	-1015
eçə	-1016
▁səh	-1017
məsinə	-1018
liyinin	-1019
▁saat	-1020
▁mənim	-1021
ələn	-1022
anlı	-1023
▁if	-1024
▁olunur	-1025
əsən	-1026
▁xəst	-1027
tər	-1028
▁istiq	-1029
▁bizim	-1030
BŞ	-1031
▁olmay	-1032
iki	-1033
çilər	-1034
sul	-1035
alıdır	-1036
▁uşaq	-1037
▁edəc	-1038
omi	-1039
▁müharib	-1040
▁bəy	-1041
▁çalış	-1042
▁görüş	-1043
▁azad	-1044
▁qey	-1045
2-	-1046
adın	-1047
xtəlif	-1048
▁Hər	-1049
▁olunan	-1050
▁uy	-1051
▁201	-1052
▁məhkə	-1053
▁hey	-1054
ləndir	-1055
larım	-1056
▁etdiyi	-1057
çinin	-1058
irə	-1059
ali	-1060
▁siz	-1061
suz	-1062
▁torp	-1063
▁Amma	-1064
▁müv	-1065
▁yüksək	-1066
siya	-1067
rin	-1068
aln	-1069
kün	-1070
▁üzər	-1071
ılmış	-1072
▁en	-1073
▁müs	-1074
▁olmaq	-1075
asiy	-1076
ndər	-1077
▁təhlük	-1078
▁müəlli	-1079
▁istiqamət	-1080
▁mily	-1081
▁pay	-1082
de	-1083
evr	-1084
▁ədə	-1085
▁maddə	-1086
▁indi	-1087
▁döy	-1088
▁neçə	-1089
▁ABŞ	-1090
▁məş	-1091
▁manat	-1092
▁qüvv	-1093
▁səs	-1094
landır	-1095
▁Mər	-1096
ika	-1097
▁necə	-1098
qaz	-1099
▁müxtəlif	-1100
▁şəkildə	-1101
▁10	-1102
▁vəzif	-1103
8-	-1104
diyini	-1105
▁top	-1106
▁bunu	-1107
▁imt	-1108
üd	-1109
oz	-1110
▁probl	-1111
▁verib	-1112
▁əlav	-1113
▁uğ	-1114
ünün	-1115
ark	-1116
▁ərz	-1117
ovun	-1118
nin	-1119
▁ət	-1120
▁Avrop	-1121
alnız	-1122
▁avt	-1123
3-	-1124
ank	-1125
▁Respublikasının	-1126
tima	-1127
▁hadisə	-1128
▁mey	-1129
məlidir	-1130
idə	-1131
tə	-1132
▁Məc	-1133
ant	-1134
▁vətəndaş	-1135
tar	-1136
▁nəticəsində	-1137
▁Ab	-1138
▁hakim	-1139
▁maraq	-1140
dın	-1141
▁deyib	-1142
▁Qarabağ	-1143
▁amma	-1144
▁dedi	-1145
müş	-1146
▁sağ	-1147
▁rəs	-1148
▁it	-1149
),	-1150
▁etdi	-1151
▁geniş	-1152
▁yaran	-1153
od	-1154
▁I	-1155
▁edilməsi	-1156
▁kü	-1157
▁iz	-1158
▁əlavə	-1159
▁beynəlxalq	-1160
▁üzv	-1161
▁bal	-1162
ladı	-1163
▁əsgər	-1164
▁qayda	-1165
▁Salam	-1166
irk	-1167
afqaz	-1168
əlb	-1169
kray	-1170
▁Belə	-1171
▁göndər	-1172
▁əks	-1173
▁iy	-1174
▁təqdim	-1175
▁təc	-1176
dirilib	-1177
▁məktəb	-1178
▁başlay	-1179
▁xan	-1180
▁eyni	-1181
▁iqtis	-1182
▁is	-1183
ilir	-1184
▁Lakin	-1185
dafiə	-1186
▁araşdır	-1187
▁silah	-1188
▁sist	-1189
▁dayan	-1190
4-	-1191
tiy	-1192
▁uyğun	-1193
iqq	-1194
▁təsir	-1195
▁Onun	-1196
▁mürac	-1197
əri	-1198
▁xüsusi	-1199
▁ib	-1200
▁hərəkət	-1201
ara	-1202
▁olunmuş	-1203
larından	-1204
atır	-1205
gə	-1206
▁təhsil	-1207
▁sosial	-1208
mam	-1209
sında	-1210
▁türk	-1211
siniz	-1212
xtar	-1213
▁fikir	-1214
▁tutul	-1215
▁məsələ	-1216
▁onlar	-1217
▁düşün	-1218
▁iddi	-1219
▁etdir	-1220
6-	-1221
▁Son	-1222
▁bilmir	-1223
▁görün	-1224
▁xarici	-1225
əssi	-1226
▁İlham	-1227
▁məqsəd	-1228
asa	-1229
ğal	-1230
▁Azərbaycanda	-1231
ədi	-1232
▁hav	-1233
▁idar	-1234
▁cinayət	-1235
kəz	-1236
▁Türkiyə	-1237
imiz	-1238
▁mənə	-1239
var	-1240
▁sual	-1241
ler	-1242
ova	-1243
▁li	-1244
▁başa	-1245
▁diqq	-1246
▁yanaş	-1247
ağır	-1248
afiq	-1249
▁hələ	-1250
ast	-1251
▁yalnız	-1252
oq	-1253
▁gəlir	-1254
7-	-1255
Azərbayc	-1256
▁layih	-1257
umət	-1258
▁Allah	-1259
ec	-1260
olog	-1261
▁din	-1262
▁ərzində	-1263
▁problem	-1264
dığını	-1265
▁müraciət	-1266
▁ola	-1267
▁səd	-1268
▁sahib	-1269
xn	-1270
maz	-1271
▁mət	-1272
kinci	-1273
mr	-1274
▁mədən	-1275
isində	-1276
anında	-1277
▁olsun	-1278
▁bunun	-1279
əmi	-1280
▁müm	-1281
).	-1282
oru	-1283
▁çıxış	-1284
▁qəz	-1285
▁mümkün	-1286
▁tik	-1287
▁dağ	-1288
▁edilmiş	-1289
▁poz	-1290
▁şərait	-1291
▁200	-1292
ag	-1293
▁nümayəndə	-1294
mışdı	-1295
▁Ay	-1296
▁ön	-1297
ırlar	-1298
ort	-1299
▁Ukray	-1300
▁sır	-1301
▁olma	-1302
.“	-1303
rik	-1304
▁İş	-1305
▁qab	-1306
est	-1307
▁deyir	-1308
▁torpaq	-1309
iyev	-1310
tı	-1311
▁dərəc	-1312
masına	-1313
ıram	-1314
▁dair	-1315
▁Milli	-1316
▁ictima	-1317
məsinin	-1318
▁inf	-1319
▁boy	-1320
usu	-1321
▁səv	-1322
▁form	-1323
▁söy	-1324
ləşdir	-1325
ərç	-1326
▁raz	-1327
▁Respublikası	-1328
▁edəcək	-1329
▁döyüş	-1330
▁İran	-1331
▁müş	-1332
bur	-1333
acı	-1334
▁erməni	-1335
▁əldə	-1336
▁işğal	-1337
▁sayı	-1338
▁202	-1339
▁Or	-1340
ayev	-1341
▁əm	-1342
▁başçı	-1343
▁gir	-1344
cud	-1345
▁qət	-1346
iç	-1347
▁ehtiy	-1348
▁əməliyyat	-1349
▁imkan	-1350
umi	-1351
▁bit	-1352
▁gələn	-1353
▁yağ	-1354
▁milyon	-1355
▁verən	-1356
▁gül	-1357
▁demək	-1358
▁bəzi	-1359
▁milli	-1360
▁siyasi	-1361
larımız	-1362
kin	-1363
ks	-1364
ahan	-1365
▁yetir	-1366
▁müt	-1367
yabr	-1368
▁məc	-1369
çu	-1370
▁ifadə	-1371
▁ora	-1372
▁gözəl	-1373
▁edilən	-1374
cum	-1375
diq	-1376
▁dur	-1377
▁fərq	-1378
▁etmə	-1379
▁qazan	-1380
▁müz	-1381
▁özü	-1382
mışdır	-1383
▁səviyy	-1384
▁sat	-1385
▁zamanda	-1386
▁tət	-1387
izm	-1388
eni	-1389
ələrin	-1390
▁xey	-1391
▁proses	-1392
▁təşkilat	-1393
ahat	-1394
▁əsər	-1395
▁halda	-1396
ləndiril	-1397
▁rus	-1398
gil	-1399
▁diqqət	-1400
rət	-1401
ilib	-1402
isi	-1403
▁qaç	-1404
▁təyin	-1405
▁aid	-1406
buat	-1407
▁qadın	-1408
asından	-1409
obil	-1410
ayıb	-1411
▁bun	-1412
▁əz	-1413
int	-1414
▁müvafiq	-1415
▁as	-1416
aların	-1417
▁burax	-1418
▁nəz	-1419
▁edilir	-1420
▁ətraf	-1421
▁müzak	-1422
əkk	-1423
irus	-1424
▁baz	-1425
▁cüm	-1426
▁avtom	-1427
▁tel	-1428
▁nö	-1429
▁fa	-1430
iniz	-1431
▁kən	-1432
yü	-1433
▁cid	-1434
▁isteh	-1435
ülh	-1436
▁hamı	-1437
lərimiz	-1438
▁öy	-1439
▁tərk	-1440
▁gecə	-1441
məsini	-1442
▁aşağı	-1443
▁18	-1444
həd	-1445
▁dən	-1446
biq	-1447
▁daş	-1448
sal	-1449
▁saxlan	-1450
ləğ	-1451
ust	-1452
▁Sən	-1453
▁edirəm	-1454
gün	-1455
▁qoş	-1456
▁199	-1457
▁mövcud	-1458
▁,	-1459
▁prezident	-1460
▁uzun	-1461
▁bay	-1462
əvi	-1463
▁akt	-1464
▁Türkiy	-1465
▁sor	-1466
▁qul	-1467
▁Avropa	-1468
▁təx	-1469
▁edərək	-1470
▁məni	-1471
▁təsdiq	-1472
▁nəzərdə	-1473
▁lazımdır	-1474
▁Qər	-1475
▁eş	-1476
▁qayı	-1477
▁dünya	-1478
məyi	-1479
▁qon	-1480
▁15	-1481
ələrinin	-1482
Qeyd	-1483
▁növb	-1484
▁təm	-1485
ayı	-1486
daşı	-1487
▁tez	-1488
▁vəs	-1489
daq	-1490
urn	-1491
▁Əs	-1492
▁buna	-1493
▁dost	-1494
▁mövq	-1495
iyası	-1496
mur	-1497
▁tətbiq	-1498
stanın	-1499
Azərbaycan	-1500
acağ	-1501
ilərin	-1502
▁orqan	-1503
▁tarixi	-1504
▁həll	-1505
▁mərh	-1506
▁cəh	-1507
▁Çünki	-1508
▁altında	-1509
ətta	-1510
▁ciddi	-1511
imi	-1512
emi	-1513
▁faiz	-1514
lub	-1515
▁hökumət	-1516
▁ağır	-1517
ron	-1518
▁yenidən	-1519
▁yerinə	-1520
▁Məmməd	-1521
▁xüsus	-1522
iri	-1523
iləri	-1524
▁dəqiq	-1525
▁etmiş	-1526
▁tən	-1527
▁arx	-1528
▁gedir	-1529
əcəy	-1530
▁həmçinin	-1531
ii	-1532
ündən	-1533
▁Öz	-1534
▁adı	-1535
▁sistem	-1536
▁kor	-1537
▁fakt	-1538
▁çatdır	-1539
▁bilir	-1540
▁yarat	-1541
pl	-1542
▁Siz	-1543
əsindən	-1544
▁gəlib	-1545
▁qaldır	-1546
▁cür	-1547
məyib	-1548
▁uğur	-1549
kəzi	-1550
rmən	-1551
lif	-1552
▁Bur	-1553
▁Bunun	-1554
▁met	-1555
▁yolu	-1556
▁Qeyd	-1557
▁mübar	-1558
▁artır	-1559
gion	-1560
▁soy	-1561
Bu	-1562
ədar	-1563
▁səfər	-1564
▁imz	-1565
▁müst	-1566
▁qap	-1567
ft	-1568
▁proq	-1569
▁vurğul	-1570
ırıq	-1571
uh	-1572
əqiq	-1573
▁çətin	-1574
▁özünü	-1575
▁nəticə	-1576
▁axtar	-1577
▁çağır	-1578
▁müqav	-1579
▁birinci	-1580
▁Əl	-1581
nə	-1582
eg	-1583
ibat	-1584
▁Nə	-1585
yə	-1586
▁Ey	-1587
▁plan	-1588
▁part	-1589
▁ür	-1590
▁ter	-1591
▁idarə	-1592
zu	-1593
bə	-1594
iliy	-1595
tən	-1596
▁sənəd	-1597
▁cümlə	-1598
ban	-1599
▁xoş	-1600
▁burada	-1601
▁ümumi	-1602
▁icra	-1603
▁Ər	-1604
▁keçirilən	-1605
▁0	-1606
ələrdə	-1607
öhbət	-1608
▁hücum	-1609
▁qeyri	-1610
kəm	-1611
▁ibarət	-1612
dum	-1613
▁rəsmi	-1614
ənub	-1615
ep	-1616
▁Ancaq	-1617
▁Komi	-1618
eti	-1619
▁ob	-1620
▁təz	-1621
aha	-1622
▁11	-1623
▁qır	-1624
▁texn	-1625
▁bundan	-1626
likdə	-1627
dılar	-1628
▁dəstək	-1629
ərbayc	-1630
▁xət	-1631
▁Məhkə	-1632
ala	-1633
▁sülh	-1634
▁12	-1635
▁yux	-1636
...	-1637
▁kömək	-1638
▁məhsul	-1639
ürcü	-1640
▁başlan	-1641
ana	-1642
▁şirk	-1643
liyyat	-1644
▁bölg	-1645
▁gənc	-1646
▁Mir	-1647
sit	-1648
▁əy	-1649
▁Prezidenti	-1650
▁təhlükəsiz	-1651
perat	-1652
▁olması	-1653
▁ancaq	-1654
▁məhkəmə	-1655
mı	-1656
iyada	-1657
alın	-1658
inf	-1659
üseyn	-1660
yekt	-1661
▁işlə	-1662
əss	-1663
▁tur	-1664
▁kiş	-1665
▁azərbayc	-1666
▁sab	-1667
▁verilən	-1668
▁İndi	-1669
▁ixt	-1670
rat	-1671
▁Kon	-1672
ızı	-1673
ail	-1674
▁Məs	-1675
▁malik	-1676
▁qurul	-1677
▁əlaqədar	-1678
baş	-1679
▁müəssi	-1680
▁şah	-1681
▁Təh	-1682
▁naziri	-1683
▁etməyə	-1684
ten	-1685
acağı	-1686
▁ərazisində	-1687
ləyir	-1688
▁Ona	-1689
lim	-1690
▁bin	-1691
tif	-1692
liyin	-1693
▁təklif	-1694
▁ayrı	-1695
əhr	-1696
▁tamam	-1697
▁üzərində	-1698
▁Xidmət	-1699
▁yenə	-1700
▁Həmin	-1701
▁un	-1702
▁Onlar	-1703
▁hə	-1704
eq	-1705
sk	-1706
▁dili	-1707
▁siyasət	-1708
ımı	-1709
▁qı	-1710
malar	-1711
layıb	-1712
▁addım	-1713
▁ümum	-1714
▁bilməz	-1715
▁yaradıl	-1716
▁göstərir	-1717
sını	-1718
oc	-1719
ağın	-1720
▁işlər	-1721
▁iqtisadi	-1722
▁dəyər	-1723
▁həb	-1724
df	-1725
▁işi	-1726
▁sərhəd	-1727
ıcı	-1728
nun	-1729
▁ərazilər	-1730
▁məz	-1731
▁ikinci	-1732
▁olsa	-1733
▁Pro	-1734
▁öyr	-1735
nın	-1736
▁çevr	-1737
▁can	-1738
▁Bil	-1739
dirilir	-1740
kur	-1741
inadən	-1742
pi	-1743
stit	-1744
▁istinadən	-1745
▁İdar	-1746
▁cəlb	-1747
asir	-1748
▁oyn	-1749
biyyat	-1750
▁yerdə	-1751
▁olmasa	-1752
▁bəl	-1753
▁norm	-1754
▁möh	-1755
▁ermən	-1756
▁qurum	-1757
və	-1758
mizin	-1759
9-	-1760
air	-1761
▁bilmə	-1762
▁isti	-1763
ror	-1764
▁küç	-1765
lində	-1766
ulu	-1767
qi	-1768
▁Əgər	-1769
mü	-1770
▁nar	-1771
dək	-1772
▁avtomobil	-1773
andan	-1774
▁sadə	-1775
▁region	-1776
▁qardaş	-1777
mər	-1778
▁qat	-1779
▁qorx	-1780
▁öldür	-1781
▁mül	-1782
übh	-1783
▁Əh	-1784
zadə	-1785
▁ailə	-1786
▁verilib	-1787
▁köç	-1788
ğın	-1789
iyasının	-1790
▁həqiq	-1791
oll	-1792
▁dön	-1793
▁sədri	-1794
▁Nazirliyinin	-1795
açı	-1796
▁yazı	-1797
▁olduq	-1798
dus	-1799
▁Şur	-1800
▁əhəmiyyət	-1801
vəz	-1802
▁nam	-1803
▁istəyir	-1804
▁nəzərə	-1805
ilməsi	-1806
onav	-1807
▁Ax	-1808
▁ödən	-1809
▁may	-1810
▁ort	-1811
▁yerləşən	-1812
luğ	-1813
▁yardım	-1814
əqil	-1815
▁rəq	-1816
▁neft	-1817
▁mat	-1818
▁Hüseyn	-1819
▁tör	-1820
▁Əli	-1821
ell	-1822
malı	-1823
▁alıb	-1824
ərçiv	-1825
▁sak	-1826
▁inan	-1827
lak	-1828
lamaq	-1829
▁müdafiə	-1830
▁geri	-1831
▁doğru	-1832
▁ictimai	-1833
den	-1834
▁rol	-1835
düz	-1836
▁bəyan	-1837
▁)	-1838
üy	-1839
▁nəzarət	-1840
▁öyrən	-1841
▁yat	-1842
▁İt	-1843
▁miq	-1844
atik	-1845
▁ildən	-1846
anlar	-1847
▁gözlən	-1848
▁aşkar	-1849
▁həbs	-1850
onavirus	-1851
mür	-1852
▁Bundan	-1853
▁j	-1854
▁çərçiv	-1855
sının	-1856
urnal	-1857
▁kr	-1858
vi	-1859
▁edirlər	-1860
kv	-1861
▁yanında	-1862
esi	-1863
▁hava	-1864
▁xər	-1865
▁Gör	-1866
▁30	-1867
▁əhal	-1868
üst	-1869
▁müəllim	-1870
pa	-1871
▁azərbaycanlı	-1872
▁itir	-1873
▁lakin	-1874
ibar	-1875
▁dir	-1876
▁zəng	-1877
▁xar	-1878
dikləri	-1879
▁məşğul	-1880
ovet	-1881
▁Dün	-1882
▁giz	-1883
iyyətlə	-1884
eb	-1885
ışdır	-1886
ərr	-1887
▁əsasında	-1888
tan	-1889
▁ölkənin	-1890
əcəyi	-1891
anına	-1892
▁qəl	-1893
▁orta	-1894
▁onlara	-1895
▁Fran	-1896
vət	-1897
▁proqram	-1898
azırda	-1899
▁elekt	-1900
▁məlumata	-1901
▁nəq	-1902
▁ölüm	-1903
▁gələcək	-1904
▁cümlədən	-1905
məyən	-1906
▁şik	-1907
gent	-1908
İN	-1909
▁har	-1910
▁qoyul	-1911
▁mərkəz	-1912
▁söhbət	-1913
mayaraq	-1914
▁illərdə	-1915
▁kat	-1916
▁ün	-1917
ahı	-1918
▁edirdi	-1919
▁almaq	-1920
▁17	-1921
eydər	-1922
▁otur	-1923
▁mətbuat	-1924
▁daşı	-1925
der	-1926
▁qis	-1927
ual	-1928
▁əsr	-1929
▁sözlərinə	-1930
▁Az	-1931
▁nəs	-1932
dəki	-1933
hur	-1934
▁olmayan	-1935
▁məcbur	-1936
eyi	-1937
▁pis	-1938
▁Bakıda	-1939
▁onları	-1940
inq	-1941
mada	-1942
▁yığ	-1943
▁atəş	-1944
▁dəniz	-1945
▁uzaq	-1946
▁etir	-1947
oloji	-1948
▁Elə	-1949
▁kar	-1950
sus	-1951
▁medi	-1952
acib	-1953
▁yanaşı	-1954
asi	-1955
▁dəyişik	-1956
▁başladı	-1957
▁fər	-1958
▁fil	-1959
▁mənt	-1960
çik	-1961
mişə	-1962
ləşdiril	-1963
▁At	-1964
▁.	-1965
▁14	-1966
▁pdf	-1967
▁Po	-1968
▁icl	-1969
izam	-1970
anal	-1971
lığın	-1972
▁Həm	-1973
ılaş	-1974
▁100	-1975
▁müzakirə	-1976
▁İc	-1977
info	-1978
▁san	-1979
ədim	-1980
▁meydan	-1981
▁İr	-1982
ida	-1983
▁Nazirliyi	-1984
▁De	-1985
ilmiş	-1986
▁açıqlam	-1987
▁orada	-1988
▁bəz	-1989
▁bizə	-1990
▁Qur	-1991
rail	-1992
aqiş	-1993
duğu	-1994
▁etmişdir	-1995
▁uc	-1996
▁ayr	-1997
lanan	-1998
▁məx	-1999
▁keçmiş	-2000
▁ziy	-2001
▁imtahan	-2002
▁olmuşdur	-2003
▁qəs	-2004
mum	-2005
▁Çox	-2006
▁verdi	-2007
▁müav	-2008
▁görül	-2009
öb	-2010
▁olmaz	-2011
▁olmaqla	-2012
örd	-2013
▁hissə	-2014
▁baxım	-2015
met	-2016
lin	-2017
ərim	-2018
▁əvəz	-2019
intaq	-2020
nik	-2021
▁məb	-2022
lament	-2023
çisi	-2024
▁yerli	-2025
mır	-2026
▁millət	-2027
ərg	-2028
əxan	-2029
▁etibar	-2030
▁azal	-2031
mişəm	-2032
▁Heydər	-2033
▁yaşlı	-2034
ahidə	-2035
▁tarixli	-2036
▁oxu	-2037
▁istiqamətində	-2038
▁13	-2039
malıdır	-2040
ata	-2041
▁real	-2042
prel	-2043
qar	-2044
▁elan	-2045
liyə	-2046
▁hətta	-2047
▁yerə	-2048
mun	-2049
Qafqaz	-2050
siyası	-2051
ologiya	-2052
sitet	-2053
▁boş	-2054
▁vacib	-2055
▁koronavirus	-2056
▁ener	-2057
▁çərçivəsində	-2058
▁sın	-2059
yev	-2060
of	-2061
şr	-2062
▁tərkib	-2063
▁Şah	-2064
▁niyə	-2065
▁Bay	-2066
mədən	-2067
kuror	-2068
▁tox	-2069
əlman	-2070
▁ası	-2071
▁Sonra	-2072
▁ixtis	-2073
▁xanım	-2074
▁Azərbaycana	-2075
▁İst	-2076
▁düşmən	-2077
▁ye	-2078
▁müstəqil	-2079
▁soruş	-2080
▁irəli	-2081
▁Gürcü	-2082
▁ondan	-2083
mayıb	-2084
▁cəmiyyət	-2085
▁mədəniyyət	-2086
.1	-2087
▁ədəbiyyat	-2088
▁mühüm	-2089
ond	-2090
▁görür	-2091
▁tib	-2092
ektor	-2093
eral	-2094
▁16	-2095
▁adlı	-2096
indəki	-2097
əbək	-2098
▁Rayon	-2099
ip	-2100
akter	-2101
▁gündə	-2102
liyini	-2103
isinin	-2104
II	-2105
▁baxmayaraq	-2106
lək	-2107
▁Rusiyanın	-2108
▁hakimiyyət	-2109
▁Bütün	-2110
rukt	-2111
▁obyekt	-2112
ələrə	-2113
▁Sər	-2114
▁birlikdə	-2115
ahiş	-2116
▁müəssisə	-2117
▁şirkət	-2118
▁(1	-2119
▁sahəsində	-2120
▁güclü	-2121
ləti	-2122
▁yarı	-2123
▁münaqiş	-2124
adır	-2125
lanıb	-2126
▁tapş	-2127
▁sıra	-2128
▁ölkədə	-2129
▁Buna	-2130
anə	-2131
lacaq	-2132
▁birgə	-2133
dud	-2134
▁kiçik	-2135
▁Meh	-2136
əlum	-2137
▁Əliyevin	-2138
liyinə	-2139
▁oxuy	-2140
▁rayonunun	-2141
bit	-2142
iyaya	-2143
▁sənin	-2144
▁cəz	-2145
▁olunması	-2146
▁eks	-2147
▁vəsait	-2148
▁maş	-2149
▁şübh	-2150
▁polis	-2151
▁İb	-2152
ləyib	-2153
▁bor	-2154
əsilə	-2155
▁mis	-2156
▁nəqliyyat	-2157
▁danışıq	-2158
rar	-2159
imin	-2160
▁insanlar	-2161
▁məsul	-2162
▁aydın	-2163
Qafqazinfo	-2164
oskv	-2165
▁elmi	-2166
▁Ermənistanın	-2167
▁yəni	-2168
ayda	-2169
▁mah	-2170
▁gəldi	-2171
▁bazar	-2172
bəx	-2173
urs	-2174
eyh	-2175
▁şəxsi	-2176
məsində	-2177
▁terror	-2178
ətli	-2179
put	-2180
▁yaşayan	-2181
əhid	-2182
▁Qafqaz	-2183
▁yad	-2184
▁tanın	-2185
lığa	-2186
▁Qaz	-2187
▁verdiyi	-2188
rib	-2189
▁həd	-2190
▁Ukrayna	-2191
▁şəxslər	-2192
adiyyat	-2193
alarının	-2194
▁qarşısında	-2195
▁sar	-2196
atırla	-2197
▁yaşayış	-2198
▁dem	-2199
yasiya	-2200
▁qo	-2201
▁kil	-2202
qiqat	-2203
▁yüz	-2204
▁Təb	-2205
▁Öl	-2206
▁Mərkəzi	-2207
▁val	-2208
▁ham	-2209
▁ruh	-2210
:“	-2211
übut	-2212
▁dollar	-2213
▁şəbək	-2214
▁günü	-2215
axçı	-2216
mid	-2217
▁bac	-2218
▁sözü	-2219
əfli	-2220
eks	-2221
▁hazırda	-2222
pert	-2223
hal	-2224
▁müşahidə	-2225
ide	-2226
▁:	-2227
▁təcr	-2228
▁mərhəl	-2229
▁ərazi	-2230
▁həmişə	-2231
məklə	-2232
▁istehsal	-2233
veri	-2234
adir	-2235
▁qarş	-2236
▁məqsədilə	-2237
erial	-2238
▁edirik	-2239
abər	-2240
▁Gün	-2241
▁yön	-2242
▁uç	-2243
əhmət	-2244
▁tədbirlər	-2245
▁ediblər	-2246
▁illər	-2247
imal	-2248
▁oxum	-2249
ost	-2250
00-	-2251
▁rə	-2252
örmət	-2253
atının	-2254
▁xarakter	-2255
▁işə	-2256
düm	-2257
arə	-2258
▁məqsə	-2259
▁hissəsi	-2260
▁sıx	-2261
urdu	-2262
zibat	-2263
▁yayıb	-2264
maqla	-2265
▁gündüz	-2266
▁İşlər	-2267
vəl	-2268
əsarət	-2269
▁Dağ	-2270
ənn	-2271
▁yaşam	-2272
▁aparılır	-2273
▁komi	-2274
▁Ukrayn	-2275
▁for	-2276
▁çünki	-2277
Bir	-2278
▁səl	-2279
masını	-2280
▁çay	-2281
ard	-2282
▁başçısı	-2283
▁Həsən	-2284
▁rəhbəri	-2285
▁qalx	-2286
gilis	-2287
▁Moskv	-2288
irin	-2289
▁sübut	-2290
▁vasitəsilə	-2291
▁işləri	-2292
▁keçən	-2293
▁/	-2294
şam	-2295
etmə	-2296
oyabr	-2297
▁hüquqi	-2298
ələrlə	-2299
ka	-2300
▁gedən	-2301
▁beş	-2302
▁nümun	-2303
▁25	-2304
▁özünə	-2305
işi	-2306
zibati	-2307
üsü	-2308
▁1-	-2309
ruktur	-2310
▁özüm	-2311
▁ail	-2312
▁kənar	-2313
▁prin	-2314
azı	-2315
entyabr	-2316
▁Komit	-2317
dikdə	-2318
▁mənz	-2319
▁bərabər	-2320
▁Di	-2321
tifaq	-2322
▁məbləğ	-2323
taxt	-2324
▁dek	-2325
▁dərin	-2326
atın	-2327
▁şərt	-2328
▁Vətən	-2329
ıldı	-2330
əncə	-2331
▁formal	-2332
▁Qan	-2333
▁aprel	-2334
əhrəm	-2335
▁maraqlı	-2336
▁səf	-2337
say	-2338
inif	-2339
eyin	-2340
deh	-2341
pan	-2342
▁yanvar	-2343
▁elm	-2344
▁Məcəll	-2345
▁Sab	-2346
▁pr	-2347
▁xahiş	-2348
▁qalan	-2349
urnalist	-2350
sınız	-2351
ers	-2352
▁Bununla	-2353
namə	-2354
▁maddəs	-2355
kilər	-2356
▁eləcə	-2357
əki	-2358
▁dəyişiklik	-2359
ərrüf	-2360
▁şəhərində	-2361
▁nail	-2362
▁asılı	-2363
▁Yax	-2364
ahib	-2365
ktyabr	-2366
anlıq	-2367
övq	-2368
▁dünyada	-2369
▁inform	-2370
düyü	-2371
▁həl	-2372
sman	-2373
za	-2374
xx	-2375
▁mart	-2376
▁büt	-2377
▁oyun	-2378
▁yeri	-2379
▁edilmişdir	-2380
onun	-2381
▁Bel	-2382
mədi	-2383
.20	-2384
▁varsa	-2385
bul	-2386
ğa	-2387
luğu	-2388
▁şəhəri	-2389
▁içində	-2390
▁dövründə	-2391
▁ödə	-2392
▁Şərq	-2393
▁Cinayət	-2394
ahid	-2395
▁mövqe	-2396
▁təbii	-2397
▁mübarizə	-2398
▁müasir	-2399
▁ins	-2400
▁xərc	-2401
▁məhz	-2402
uman	-2403
▁təmiz	-2404
▁St	-2405
bol	-2406
▁Br	-2407
▁iddia	-2408
▁Naxçı	-2409
mənin	-2410
▁Böyük	-2411
diyim	-2412
▁vurğulayıb	-2413
▁bank	-2414
ıblar	-2415
▁198	-2416
▁rayonu	-2417
▁qızı	-2418
▁bununla	-2419
▁küt	-2420
▁idman	-2421
▁məxsus	-2422
ator	-2423
▁dörd	-2424
madan	-2425
▁ak	-2426
ass	-2427
▁möhkəm	-2428
Rİ	-2429
▁fəaliyyəti	-2430
ilikdə	-2431
əlil	-2432
▁qol	-2433
eyf	-2434
))	-2435
tərəfli	-2436
▁zərur	-2437
mayıl	-2438
▁etmir	-2439
erik	-2440
tern	-2441
▁şe	-2442
hət	-2443
ski	-2444
▁dal	-2445
MT	-2446
▁Kr	-2447
qır	-2448
▁gec	-2449
afizə	-2450
duz	-2451
▁sığ	-2452
təb	-2453
laq	-2454
▁müharibə	-2455
▁ədəd	-2456
ilas	-2457
sına	-2458
▁həf	-2459
işin	-2460
▁Uni	-2461
▁me	-2462
▁tanı	-2463
efon	-2464
əkim	-2465
dul	-2466
▁yaxud	-2467
▁dərs	-2468
▁Fər	-2469
▁gedib	-2470
▁bərpa	-2471
▁bildirilib	-2472
▁Və	-2473
▁yuxarı	-2474
▁hazırlan	-2475
▁sinif	-2476
▁pl	-2477
ig	-2478
uya	-2479
ativ	-2480
▁qapı	-2481
əp	-2482
▁səhər	-2483
▁qeydə	-2484
▁yolux	-2485
▁ağac	-2486
lıqlı	-2487
▁tanış	-2488
▁sənət	-2489
rt	-2490
əbb	-2491
abin	-2492
manın	-2493
▁nömr	-2494
▁$	-2495
ənab	-2496
▁Tər	-2497
▁Yox	-2498
▁açı	-2499
lığında	-2500
▁Alman	-2501
▁ehtiyac	-2502
sam	-2503
ibi	-2504
▁şikayət	-2505
▁ehtim	-2506
▁Müdafiə	-2507
▁vermək	-2508
▁müavini	-2509
▁təcrüb	-2510
▁mark	-2511
dikdən	-2512
▁prinsi	-2513
▁Mərkəz	-2514
▁tem	-2515
bəttə	-2516
atlar	-2517
▁alınıb	-2518
dəs	-2519
▁sakin	-2520
əliklə	-2521
▁ötən	-2522
▁Burada	-2523
ici	-2524
▁dəh	-2525
▁sənə	-2526
ani	-2527
▁Paş	-2528
▁kif	-2529
▁məhdud	-2530
▁onda	-2531
▁bütöv	-2532
▁Gül	-2533
▁İsrail	-2534
▁müsəlman	-2535
ışı	-2536
▁məktub	-2537
▁Ne	-2538
uli	-2539
sir	-2540
▁ixtisas	-2541
tiham	-2542
lıb	-2543
▁div	-2544
▁sizin	-2545
▁stan	-2546
plom	-2547
▁növbəti	-2548
▁test	-2549
okr	-2550
▁noyabr	-2551
eder	-2552
masının	-2553
mağı	-2554
liklə	-2555
▁Univer	-2556
rah	-2557
▁barəsində	-2558
qust	-2559
▁qayıt	-2560
▁yum	-2561
se	-2562
▁fəl	-2563
avaş	-2564
▁dini	-2565
▁düşür	-2566
▁rəng	-2567
▁Gürcüstan	-2568
▁icaz	-2569
ge	-2570
▁istər	-2571
▁Əhməd	-2572
vad	-2573
▁Eyni	-2574
▁iyul	-2575
əzər	-2576
▁ata	-2577
▁əgər	-2578
layır	-2579
əmər	-2580
▁bul	-2581
şaq	-2582
▁@	-2583
▁fərqli	-2584
▁düzgün	-2585
▁Yəni	-2586
ləyən	-2587
▁Bun	-2588
▁Mənim	-2589
▁Ali	-2590
▁pey	-2591
▁istintaq	-2592
▁sentyabr	-2593
AR	-2594
▁Beynəlxalq	-2595
▁hədə	-2596
▁Cənub	-2597
pekt	-2598
▁araşdırma	-2599
aqq	-2600
▁kifayət	-2601
▁dünyanın	-2602
▁Məhəmməd	-2603
19-	-2604
▁Mirz	-2605
▁peş	-2606
▁vardır	-2607
ülüb	-2608
▁Par	-2609
icarət	-2610
▁məntəq	-2611
▁iştirakçı	-2612
▁şair	-2613
six	-2614
gah	-2615
▁dekabr	-2616
▁Məmmədov	-2617
▁gəz	-2618
▁Sur	-2619
▁qədim	-2620
▁şəhid	-2621
AN	-2622
▁narahat	-2623
▁bas	-2624
▁yoxdu	-2625
veric	-2626
▁adlandır	-2627
▁insanların	-2628
▁sürət	-2629
▁fiz	-2630
▁men	-2631
▁üstün	-2632
▁Xalq	-2633
▁rej	-2634
xal	-2635
▁deput	-2636
▁etiraz	-2637
▁ləğ	-2638
▁məqsədi	-2639
bas	-2640
▁sif	-2641
▁zəhmət	-2642
▁fevr	-2643
",	-2644
▁Ən	-2645
▁vəziyyəti	-2646
▁qorun	-2647
▁daxili	-2648
▁yaşadı	-2649
str	-2650
▁Məsələn	-2651
▁şöb	-2652
▁Kom	-2653
▁məhv	-2654
▁alan	-2655
▁silahlı	-2656
▁qeydiyyat	-2657
▁Yol	-2658
▁Ümum	-2659
▁yerlərdə	-2660
▁int	-2661
▁ittiham	-2662
▁xəstəxan	-2663
▁İsmayıl	-2664
▁ordus	-2665
▁qaytar	-2666
▁şəxslərin	-2667
▁təmsil	-2668
▁Yer	-2669
▁la	-2670
yanın	-2671
əqin	-2672
ədək	-2673
▁dayandır	-2674
▁İd	-2675
▁qanunsuz	-2676
uru	-2677
lil	-2678
▁sağlam	-2679
ahis	-2680
oğlu	-2681
▁hörmət	-2682
▁Heç	-2683
▁oktyabr	-2684
iyaz	-2685
aman	-2686
ars	-2687
▁xeyli	-2688
▁zərər	-2689
▁öv	-2690
▁çıxıb	-2691
əkkür	-2692
enin	-2693
▁Dağlıq	-2694
bəxt	-2695
10	-2696
lüy	-2697
▁tərəfdən	-2698
▁Bizim	-2699
▁İslam	-2700
▁mənzil	-2701
▁sadəcə	-2702
▁birləş	-2703
əff	-2704
▁paytaxt	-2705
ınız	-2706
▁Sə	-2707
▁sur	-2708
▁tab	-2709
ələrində	-2710
axı	-2711
▁səy	-2712
▁yek	-2713
▁Bunu	-2714
and	-2715
tensi	-2716
▁olmam	-2717
▁büd	-2718
▁təsərrüf	-2719
▁2-	-2720
▁işıq	-2721
▁?	-2722
▁razı	-2723
le	-2724
eft	-2725
umuz	-2726
▁vaxtı	-2727
▁Qul	-2728
▁İnsan	-2729
▁miqdar	-2730
▁Türkiyənin	-2731
fran	-2732
▁üzərinə	-2733
▁olmalıdır	-2734
▁Hazırda	-2735
▁respublik	-2736
lanır	-2737
▁qoşun	-2738
▁Polis	-2739
ris	-2740
▁Onların	-2741
▁sürü	-2742
▁kişi	-2743
▁dərhal	-2744
▁baxış	-2745
▁əməkdaşlıq	-2746
nı	-2747
lüd	-2748
▁təvəl	-2749
▁Min	-2750
əsr	-2751
▁Yeni	-2752
▁iqtisadiyyat	-2753
▁material	-2754
▁əhat	-2755
▁Məcəlləsinin	-2756
▁töv	-2757
duq	-2758
▁dilində	-2759
▁gözlənilir	-2760
▁müqavil	-2761
▁paylaş	-2762
fer	-2763
▁bəs	-2764
əmir	-2765
▁koll	-2766
▁ac	-2767
▁qarşılıqlı	-2768
asiyası	-2769
tr	-2770
umu	-2771
olk	-2772
çilik	-2773
▁As	-2774
▁görünür	-2775
▁təvəllüd	-2776
məyəcək	-2777
OV	-2778
▁ölkəmiz	-2779
▁tədbirləri	-2780
▁Təş	-2781
▁təlim	-2782
▁əməkdaşları	-2783
▁telefon	-2784
▁keçirilib	-2785
▁maliyyə	-2786
▁vide	-2787
atırladaq	-2788
bəy	-2789
▁pozul	-2790
ələrdən	-2791
▁3-	-2792
▁bayram	-2793
▁Şuş	-2794
▁SS	-2795
▁düzəl	-2796
▁bunlar	-2797
▁bel	-2798
▁saylı	-2799
▁təvəllüdlü	-2800
dalət	-2801
▁Daha	-2802
▁kanal	-2803
mamış	-2804
▁ermənilər	-2805
düy	-2806
▁səni	-2807
▁hökm	-2808
duğ	-2809
▁tamamilə	-2810
▁sevin	-2811
▁parç	-2812
▁başlam	-2813
▁dərəcə	-2814
▁diplom	-2815
ırdılar	-2816
▁parlament	-2817
▁üzvü	-2818
▁ma	-2819
▁musi	-2820
▁nis	-2821
▁məsuliyyət	-2822
mar	-2823
onal	-2824
ert	-2825
▁vər	-2826
▁Yar	-2827
liz	-2828
▁mar	-2829
▁24	-2830
▁qov	-2831
utbol	-2832
▁qalıb	-2833
▁stat	-2834
ətə	-2835
▁rahat	-2836
lığını	-2837
▁istə	-2838
▁hadis	-2839
▁zə	-2840
▁çar	-2841
▁adını	-2842
▁Hacı	-2843
rahim	-2844
▁ayında	-2845
Mən	-2846
▁yarım	-2847
▁bizi	-2848
▁əksər	-2849
lükəsiz	-2850
▁jurnalist	-2851
▁Şəhər	-2852
▁məruz	-2853
▁sözləri	-2854
▁çap	-2855
▁aradan	-2856
▁qəzet	-2857
ətdə	-2858
inti	-2859
dük	-2860
▁ali	-2861
ərb	-2862
mələri	-2863
▁Osman	-2864
▁inkişafı	-2865
.2	-2866
▁izah	-2867
▁keyf	-2868
edit	-2869
Az	-2870
▁mövzu	-2871
madı	-2872
itab	-2873
abit	-2874
▁Kim	-2875
stitut	-2876
▁Məlum	-2877
evir	-2878
▁ləğv	-2879
▁Bax	-2880
▁məlumatına	-2881
▁qəsəb	-2882
▁böy	-2883
▁oğl	-2884
▁21	-2885
▁Çin	-2886
alarında	-2887
▁ətrafında	-2888
çək	-2889
▁keçirilməsi	-2890
ılacaq	-2891
▁Nazirlər	-2892
▁nümayiş	-2893
▁qonş	-2894
▁lə	-2895
▁Naxçıvan	-2896
▁prezidenti	-2897
şa	-2898
▁Bak	-2899
kum	-2900
▁50	-2901
ektoru	-2902
▁sonr	-2903
eyir	-2904
minən	-2905
▁özünün	-2906
▁istis	-2907
▁İttifaq	-2908
ern	-2909
iblər	-2910
▁22	-2911
▁komanda	-2912
▁Mah	-2913
▁qanunveric	-2914
▁meş	-2915
▁göy	-2916
▁dağı	-2917
▁temperat	-2918
ult	-2919
▁cəhd	-2920
▁bən	-2921
oloq	-2922
örp	-2923
▁gərək	-2924
əqq	-2925
▁təkrar	-2926
▁şəxsin	-2927
▁enerji	-2928
uc	-2929
çılar	-2930
cək	-2931
çiləri	-2932
itan	-2933
▁çevril	-2934
uk	-2935
ərgin	-2936
▁qara	-2937
▁23	-2938
▁Mət	-2939
▁Hal	-2940
yar	-2941
▁borc	-2942
▁səlah	-2943
▁mübahis	-2944
▁=	-2945
alara	-2946
▁etməsi	-2947
ılmasına	-2948
eron	-2949
▁dövləti	-2950
məmiş	-2951
▁oğlan	-2952
▁nəşr	-2953
▁ek	-2954
▁göstərən	-2955
▁qəhrəm	-2956
asp	-2957
AT	-2958
ayır	-2959
ünüz	-2960
məkdə	-2961
▁xat	-2962
▁Gənc	-2963
▁müsbət	-2964
yiq	-2965
▁ehtiyat	-2966
▁vardı	-2967
ırda	-2968
▁tan	-2969
▁duy	-2970
▁düşüb	-2971
▁Bəs	-2972
aktla	-2973
ama	-2974
▁avqust	-2975
▁adına	-2976
000	-2977
atr	-2978
asim	-2979
iyi	-2980
yun	-2981
▁BMT	-2982
abelə	-2983
▁Səh	-2984
▁komp	-2985
▁pal	-2986
▁xəsarət	-2987
▁kök	-2988
dənin	-2989
▁səhif	-2990
▁Cav	-2991
bar	-2992
aket	-2993
▁qələb	-2994
adağ	-2995
▁məslə	-2996
▁dövrdə	-2997
ətdən	-2998
▁bacar	-2999
ayrı	-3000
▁ticarət	-3001
izi	-3002
▁Agent	-3003
kər	-3004
▁Part	-3005
▁Qız	-3006
▁tip	-3007
▁zəif	-3008
itar	-3009
isinə	-3010
▁qızıl	-3011
▁mon	-3012
▁eləy	-3013
▁ekspert	-3014
mayan	-3015
▁olunacaq	-3016
ətinin	-3017
▁təkcə	-3018
ayan	-3019
yam	-3020
agir	-3021
▁İm	-3022
▁söylə	-3023
▁Bab	-3024
başa	-3025
▁Xoc	-3026
▁xilas	-3027
lənir	-3028
▁Əf	-3029
▁Put	-3030
▁əvvəlki	-3031
▁Kor	-3032
ayis	-3033
▁Gəncə	-3034
▁dar	-3035
▁Tur	-3036
▁vəkil	-3037
▁abi	-3038
məyin	-3039
▁verilməsi	-3040
▁qabaq	-3041
▁ada	-3042
▁keçiriləcək	-3043
▁tədqiqat	-3044
▁normal	-3045
rum	-3046
▁Təhlükəsiz	-3047
▁istəyirəm	-3048
▁ve	-3049
▁qərarı	-3050
▁təzyiq	-3051
▁sahədə	-3052
▁xüsusilə	-3053
▁əhali	-3054
▁tök	-3055
▁İbrahim	-3056
▁bilmirəm	-3057
▁heyvan	-3058
▁mülk	-3059
iyyətinin	-3060
▁sim	-3061
▁vəf	-3062
▁Qərb	-3063
əsə	-3064
og	-3065
▁197	-3066
▁tal	-3067
▁Sovet	-3068
▁J	-3069
▁uğr	-3070
əyan	-3071
▁Dax	-3072
▁sənay	-3073
masında	-3074
.0	-3075
▁kam	-3076
ƏT	-3077
▁inzibati	-3078
▁Art	-3079
▁illik	-3080
lad	-3081
eli	-3082
lama	-3083
▁əsrin	-3084
▁dəmir	-3085
▁Hav	-3086
▁maddi	-3087
arif	-3088
iləş	-3089
▁axı	-3090
ələrini	-3091
ığı	-3092
▁yaxınlaş	-3093
▁tibbi	-3094
▁sakini	-3095
▁yerində	-3096
▁Yan	-3097
▁ürək	-3098
▁üstündə	-3099
▁sədr	-3100
▁daşıy	-3101
▁prinsip	-3102
▁ap	-3103
▁bəlkə	-3104
alıq	-3105
▁səhv	-3106
▁mənb	-3107
▁ingilis	-3108
onu	-3109
▁ənən	-3110
idir	-3111
▁kön	-3112
ID	-3113
▁ab	-3114
▁vəziyyətdə	-3115
iver	-3116
▁razılaş	-3117
▁Qor	-3118
▁əhatə	-3119
▁toxun	-3120
laraq	-3121
▁Kabin	-3122
▁habelə	-3123
▁Xarici	-3124
▁üsul	-3125
▁əmlak	-3126
▁əmin	-3127
▁salın	-3128
▁həkim	-3129
ümüz	-3130
▁ümid	-3131
▁axşam	-3132
▁Birinci	-3133
▁ov	-3134
▁Göz	-3135
▁günah	-3136
əcəyini	-3137
▁prof	-3138
yu	-3139
▁törət	-3140
▁gəlin	-3141
ıç	-3142
▁mühit	-3143
▁Bəl	-3144
dirilməsi	-3145
▁hüququ	-3146
▁”	-3147
▁Dünya	-3148
etr	-3149
▁qarış	-3150
məsindən	-3151
▁tutub	-3152
▁qurtar	-3153
dadır	-3154
▁öh	-3155
▁şimal	-3156
▁məşhur	-3157
▁şeir	-3158
▁təsv	-3159
▁müzakir	-3160
▁strat	-3161
lıqdan	-3162
▁çəkil	-3163
▁Şir	-3164
▁təyy	-3165
▁zəngin	-3166
▁psix	-3167
▁şü	-3168
ənlər	-3169
▁bildirir	-3170
▁sizə	-3171
aca	-3172
şeron	-3173
▁alim	-3174
▁zor	-3175
alicə	-3176
▁196	-3177
▁Onu	-3178
▁fikr	-3179
▁kütlə	-3180
▁fayda	-3181
▁ayaq	-3182
▁Ak	-3183
▁imtah	-3184
▁yoldaş	-3185
▁vil	-3186
▁axtarış	-3187
▁bəh	-3188
alarına	-3189
▁deyilir	-3190
▁mülki	-3191
▁hamısı	-3192
ədir	-3193
▁yola	-3194
▁klub	-3195
▁bi	-3196
▁qiymətləndir	-3197
atda	-3198
▁bədən	-3199
▁qulluq	-3200
orta	-3201
▁təşəbb	-3202
▁hakimiyyəti	-3203
ümü	-3204
▁Sil	-3205
▁başlayıb	-3206
alarını	-3207
▁xatır	-3208
qın	-3209
izəd	-3210
▁onunla	-3211
▁Əz	-3212
diş	-3213
▁əleyh	-3214
▁Qüvv	-3215
▁cin	-3216
▁Aş	-3217
▁ələ	-3218
ımızın	-3219
▁ci	-3220
lış	-3221
▁Göy	-3222
rist	-3223
▁xətt	-3224
▁aparılan	-3225
aric	-3226
ellyasiya	-3227
▁siyahı	-3228
▁Sal	-3229
alarda	-3230
▁lider	-3231
▁yönəl	-3232
▁məsləhət	-3233
▁Beləliklə	-3234
▁qısa	-3235
▁Universitet	-3236
mal	-3237
ayıl	-3238
▁öncə	-3239
▁səlahiyyət	-3240
▁qoyub	-3241
▁ibarətdir	-3242
şən	-3243
▁rəhbərliyi	-3244
dıqdan	-3245
əxəssi	-3246
▁vermiş	-3247
usiya	-3248
,5	-3249
▁müqayis	-3250
uda	-3251
▁məm	-3252
▁Ram	-3253
əkar	-3254
▁olmur	-3255
ce	-3256
▁pen	-3257
▁mübariz	-3258
▁əhalinin	-3259
ans	-3260
▁informasiya	-3261
▁köçür	-3262
▁anlay	-3263
▁qiyməti	-3264
▁sin	-3265
ƏR	-3266
▁cənub	-3267
mil	-3268
diyev	-3269
▁İkinci	-3270
▁Ge	-3271
muşdu	-3272
▁Təşkil	-3273
adisə	-3274
▁yalan	-3275
afat	-3276
▁keçirilir	-3277
Biz	-3278
▁gərgin	-3279
▁Fransa	-3280
▁kitabı	-3281
əssüf	-3282
▁etməklə	-3283
▁28	-3284
▁mədəni	-3285
sen	-3286
▁ger	-3287
idi	-3288
lıqla	-3289
▁(19	-3290
▁imzalan	-3291
▁sayt	-3292
▁Abdul	-3293
lisin	-3294
indi	-3295
▁eşit	-3296
lit	-3297
eyr	-3298
OVID	-3299
ağına	-3300
▁Nadir	-3301
Al	-3302
fə	-3303
▁bağlan	-3304
▁lap	-3305
▁Hə	-3306
▁məğ	-3307
▁biləcək	-3308
empi	-3309
▁başq	-3310
əncam	-3311
▁arab	-3312
▁milyard	-3313
▁Bal	-3314
▁icazə	-3315
▁gözlə	-3316
▁aşağıdakı	-3317
▁Müs	-3318
mızı	-3319
▁düşünür	-3320
▁Şurasının	-3321
▁arz	-3322
lənməsi	-3323
▁Şam	-3324
▁daim	-3325
▁xeyir	-3326
▁edildi	-3327
▁təxminən	-3328
▁körp	-3329
dr	-3330
▁rayonunda	-3331
ayıt	-3332
▁Cənubi	-3333
▁ölç	-3334
▁əf	-3335
hum	-3336
▁bah	-3337
▁vurul	-3338
▁gedə	-3339
ideyn	-3340
▁özəl	-3341
▁etsin	-3342
▁üstünə	-3343
▁Xan	-3344
mışam	-3345
▁müalicə	-3346
liyindən	-3347
umq	-3348
lığının	-3349
▁deyildi	-3350
▁rejim	-3351
▁olmayıb	-3352
▁ul	-3353
▁imtina	-3354
▁hansısa	-3355
▁xal	-3356
▁vak	-3357
ılış	-3358
▁qaydada	-3359
▁don	-3360
agird	-3361
▁Abşeron	-3362
doğ	-3363
▁içər	-3364
▁Prokuror	-3365
▁əhəmiyyətli	-3366
▁Daxili	-3367
▁Kam	-3368
▁Cavab	-3369
ədii	-3370
▁layiq	-3371
▁191	-3372
ılmışdır	-3373
əsin	-3374
▁qonaq	-3375
▁mas	-3376
əmiyyəti	-3377
▁küləy	-3378
▁elektron	-3379
əndi	-3380
▁şeyi	-3381
▁qad	-3382
▁5-	-3383
etik	-3384
▁Mətbuat	-3385
▁bür	-3386
ress	-3387
məni	-3388
siyasının	-3389
▁26	-3390
səf	-3391
▁müqavilə	-3392
▁yaradır	-3393
▁bitir	-3394
▁insanın	-3395
▁vergi	-3396
▁kredit	-3397
raz	-3398
▁həc	-3399
mud	-3400
lob	-3401
tü	-3402
▁Gəl	-3403
▁futbol	-3404
form	-3405
▁tutur	-3406
▁mənəvi	-3407
▁ümumilikdə	-3408
▁yüksəl	-3409
isk	-3410
▁rast	-3411
▁saxlay	-3412
gül	-3413
lisi	-3414
dıl	-3415
▁univer	-3416
ləq	-3417
lok	-3418
▁Müh	-3419
▁namizəd	-3420
▁fun	-3421
arkən	-3422
▁mərkəzi	-3423
▁keçib	-3424
▁ana	-3425
▁ərəb	-3426
▁qoşul	-3427
▁sərn	-3428
▁cavabdeh	-3429
▁üs	-3430
▁çıxır	-3431
▁təhlükəsizlik	-3432
▁gətirib	-3433
liğ	-3434
▁burda	-3435
yıq	-3436
▁xəstəlik	-3437
▁qism	-3438
▁27	-3439
▁ədalət	-3440
▁alır	-3441
▁təbrik	-3442
▁səviyyədə	-3443
50	-3444
ləndirilməsi	-3445
▁dərəcədə	-3446
diri	-3447
▁Xəzər	-3448
▁40	-3449
ağını	-3450
▁sabit	-3451
qil	-3452
▁imzal	-3453
▁müəllif	-3454
▁getdi	-3455
▁yoxsa	-3456
▁Əb	-3457
umqayıt	-3458
▁qış	-3459
anının	-3460
atları	-3461
▁mük	-3462
▁düşdü	-3463
▁istəd	-3464
▁güm	-3465
ternet	-3466
arın	-3467
əddin	-3468
mizi	-3469
▁onlardan	-3470
▁cənab	-3471
▁vermə	-3472
▁zəruri	-3473
\”.	-3474
▁əleyhinə	-3475
▁saz	-3476
▁Yen	-3477
axta	-3478
AS	-3479
▁düşən	-3480
ahlı	-3481
ünür	-3482
▁Mar	-3483
▁nöqt	-3484
▁toy	-3485
▁od	-3486
▁başına	-3487
övqəl	-3488
▁ilkin	-3489
əbh	-3490
ülmüş	-3491
▁Osmanlı	-3492
▁tarixində	-3493
ümə	-3494
▁hərb	-3495
▁rəisi	-3496
▁yanına	-3497
▁markalı	-3498
üquq	-3499
▁Nizam	-3500
▁məhkum	-3501
▁vəfat	-3502
əsidir	-3503
vil	-3504
▁məsələlər	-3505
▁məhrum	-3506
▁oxş	-3507
▁keyfiyyət	-3508
▁birbaşa	-3509
ona	-3510
əxəssis	-3511
▁des	-3512
▁formalaş	-3513
▁müddə	-3514
▁mövz	-3515
▁uğrunda	-3516
erika	-3517
▁Kitab	-3518
▁sub	-3519
▁2020-	-3520
▁salam	-3521
▁ediləcək	-3522
stanbul	-3523
▁aktiv	-3524
▁tikinti	-3525
▁Dər	-3526
cid	-3527
▁qalib	-3528
irik	-3529
▁Füz	-3530
▁baxımından	-3531
İM	-3532
▁qrupu	-3533
▁qarşısını	-3534
saq	-3535
▁elektrik	-3536
əddəs	-3537
nes	-3538
▁sistemi	-3539
▁yağış	-3540
▁deməkdir	-3541
▁toplan	-3542
▁üzvləri	-3543
pər	-3544
▁Azər	-3545
lənib	-3546
lat	-3547
▁məqam	-3548
▁radi	-3549
erin	-3550
lobal	-3551
tez	-3552
dax	-3553
▁Ev	-3554
▁konfran	-3555
ribat	-3556
▁dövlətin	-3557
▁İqtis	-3558
▁Mu	-3559
▁10-	-3560
▁hallarda	-3561
əmbər	-3562
ologiy	-3563
▁boyu	-3564
▁sakit	-3565
▁idey	-3566
▁Nov	-3567
▁bilərlər	-3568
▁bilin	-3569
məsin	-3570
▁Abbas	-3571
▁1.	-3572
▁nömrəli	-3573
▁qayn	-3574
diyinə	-3575
əyini	-3576
alə	-3577
iliyi	-3578
▁Xidmətinin	-3579
▁fiziki	-3580
əşf	-3581
▁dəvət	-3582
▁etdik	-3583
ahət	-3584
lüyü	-3585
▁çıxdı	-3586
▁məsələləri	-3587
exn	-3588
Qar	-3589
▁ödəniş	-3590
asız	-3591
eviz	-3592
▁əvvəlcə	-3593
▁Düş	-3594
▁xaric	-3595
ayın	-3596
yas	-3597
▁etdiyini	-3598
▁Mil	-3599
▁bayr	-3600
kret	-3601
▁əş	-3602
▁Qrup	-3603
▁qalır	-3604
övqəladə	-3605
▁iştirakı	-3606
eam	-3607
▁Ad	-3608
otik	-3609
▁yandır	-3610
vər	-3611
▁törəd	-3612
▁məğlub	-3613
▁nədir	-3614
▁tapşır	-3615
▁Kərim	-3616
▁kür	-3617
▁yaralan	-3618
▁Quliyev	-3619
▁evə	-3620
dıqları	-3621
▁Su	-3622
land	-3623
▁Hətta	-3624
▁islah	-3625
▁olacağı	-3626
lidir	-3627
▁etmişdi	-3628
xana	-3629
tib	-3630
ləşdirilməsi	-3631
üfuz	-3632
▁pil	-3633
arası	-3634
Türk	-3635
amız	-3636
iyalı	-3637
▁sahil	-3638
aki	-3639
▁verəcək	-3640
▁nümayəndələri	-3641
▁yaradılması	-3642
▁Rəs	-3643
▁Ağdam	-3644
▁dedim	-3645
▁yazır	-3646
▁təbliğ	-3647
layev	-3648
▁mövqey	-3649
▁Dey	-3650
▁ört	-3651
▁Əvvəl	-3652
▁boğ	-3653
aksi	-3654
▁day	-3655
əniz	-3656
iyaziyyat	-3657
▁axır	-3658
ektiv	-3659
▁yazıb	-3660
▁təqsir	-3661
kü	-3662
▁səfir	-3663
▁Ser	-3664
▁Uşaq	-3665
▁4-	-3666
▁sahibkar	-3667
▁inc	-3668
▁struktur	-3669
noz	-3670
▁gəlmiş	-3671
▁şərh	-3672
▁qadağ	-3673
▁Kür	-3674
▁bildirilir	-3675
▁Türkiyədə	-3676
▁Oğ	-3677
▁mane	-3678
acağını	-3679
yer	-3680
▁bəzən	-3681
▁yaxınlığında	-3682
larımızın	-3683
▁ayır	-3684
▁qida	-3685
asan	-3686
▁haqda	-3687
▁yekun	-3688
arəti	-3689
▁ortaya	-3690
▁təxribat	-3691
▁quş	-3692
▁sol	-3693
▁Əmək	-3694
▁şagird	-3695
▁büdc	-3696
▁Hakim	-3697
▁orda	-3698
▁abidə	-3699
▁baxımdan	-3700
▁xəbərdar	-3701
▁Təhsil	-3702
▁ünvan	-3703
▁məlumatlar	-3704
ağında	-3705
▁ser	-3706
▁sərnişin	-3707
riban	-3708
▁nüfuz	-3709
▁aparılıb	-3710
▁qaldı	-3711
aci	-3712
▁çıxan	-3713
mələ	-3714
mini	-3715
▁verilir	-3716
ılmasını	-3717
dad	-3718
▁İcra	-3719
▁Tel	-3720
▁keçid	-3721
▁Bayram	-3722
▁səmər	-3723
▁həv	-3724
▁təşəkkür	-3725
▁gündən	-3726
inal	-3727
▁İstanbul	-3728
▁maşın	-3729
iylə	-3730
vest	-3731
ayəti	-3732
▁sektor	-3733
▁köh	-3734
▁kap	-3735
▁Komis	-3736
▁çatıb	-3737
usif	-3738
11	-3739
▁qəlb	-3740
▁Təbii	-3741
▁yanğın	-3742
▁ölüb	-3743
▁vətəndaşı	-3744
▁+	-3745
▁general	-3746
▁xidməti	-3747
oqraf	-3748
▁komis	-3749
▁anadan	-3750
asiyasının	-3751
▁dəqiqə	-3752
▁Digər	-3753
ərdə	-3754
zim	-3755
bəti	-3756
▁icr	-3757
▁olardı	-3758
-19	-3759
▁adamlar	-3760
▁planlaşdır	-3761
lənən	-3762
isini	-3763
ərkən	-3764
manı	-3765
▁SSRİ	-3766
atında	-3767
əliyev	-3768
▁etməlidir	-3769
▁vilayət	-3770
▁Sev	-3771
▁Feder	-3772
▁Af	-3773
dıqda	-3774
▁səbəbdən	-3775
▁prosesi	-3776
▁bat	-3777
val	-3778
▁Kar	-3779
ləndirilən	-3780
ülən	-3781
lığına	-3782
▁alınması	-3783
mit	-3784
amış	-3785
▁mes	-3786
▁etdilər	-3787
▁valideyn	-3788
▁arasındakı	-3789
dal	-3790
▁bilərsiniz	-3791
▁saxlanılıb	-3792
ağız	-3793
▁etibarən	-3794
▁çoxdur	-3795
ustaf	-3796
▁dünyaya	-3797
asım	-3798
▁direktoru	-3799
▁Bəli	-3800
▁Həmçinin	-3801
▁mür	-3802
▁kons	-3803
▁meydana	-3804
▁xalqı	-3805
▁hesabına	-3806
▁Mus	-3807
▁istiqamətdə	-3808
▁yetiş	-3809
▁həsr	-3810
▁asan	-3811
▁önəm	-3812
▁nəfərin	-3813
▁Hey	-3814
▁ayının	-3815
ləmə	-3816
▁nəh	-3817
5,	-3818
▁ef	-3819
▁müsahib	-3820
▁mod	-3821
▁günə	-3822
▁ala	-3823
adr	-3824
▁kompl	-3825
▁29	-3826
cıl	-3827
▁mütləq	-3828
▁etdirilir	-3829
▁Sizin	-3830
liyik	-3831
▁qabil	-3832
▁20-	-3833
▁gey	-3834
adil	-3835
▁Zəng	-3836
▁verə	-3837
▁yəqin	-3838
▁ağz	-3839
ılmaz	-3840
AL	-3841
▁canlı	-3842
▁amil	-3843
ramp	-3844
▁tövs	-3845
▁Sosial	-3846
▁bədii	-3847
şah	-3848
rəy	-3849
▁maddəsinə	-3850
▁mümkündür	-3851
ultan	-3852
▁rəqəm	-3853
▁üçüncü	-3854
əqqəti	-3855
uncu	-3856
çılıq	-3857
Bil	-3858
▁Məhkəməsinin	-3859
▁evdə	-3860
▁yarış	-3861
▁xalqın	-3862
▁xüsusiyyət	-3863
▁Ordus	-3864
aj	-3865
▁davran	-3866
▁Tan	-3867
yor	-3868
nan	-3869
▁Bank	-3870
▁təsvir	-3871
▁sir	-3872
ian	-3873
▁dolu	-3874
▁adət	-3875
▁192	-3876
usun	-3877
▁prokuror	-3878
▁Silahlı	-3879
▁texniki	-3880
abiq	-3881
ıntı	-3882
▁əlaqə	-3883
▁Bəlkə	-3884
acaqlar	-3885
dular	-3886
▁niş	-3887
▁Əlbəttə	-3888
▁ərazilərdə	-3889
3,	-3890
▁qonşu	-3891
▁İdarəsinin	-3892
iyent	-3893
▁xa	-3894
empion	-3895
▁kimin	-3896
▁Məhkəmə	-3897
▁sərt	-3898
2,	-3899
▁Yaxşı	-3900
▁İrə	-3901
▁zid	-3902
▁əc	-3903
▁tamaş	-3904
alt	-3905
▁fon	-3906
andem	-3907
abil	-3908
sün	-3909
▁yür	-3910
▁nark	-3911
▁öhdə	-3912
▁məsaf	-3913
amlı	-3914
əbi	-3915
▁Mənə	-3916
▁Sizə	-3917
▁kəndi	-3918
▁ama	-3919
alıb	-3920
▁göstərilən	-3921
eji	-3922
▁ide	-3923
▁əmələ	-3924
▁kaf	-3925
ça	-3926
əbr	-3927
//	-3928
▁194	-3929
▁kəl	-3930
▁edin	-3931
▁İki	-3932
▁vit	-3933
▁tapşırıq	-3934
▁Cəfər	-3935
▁yap	-3936
anov	-3937
məkdən	-3938
iyyətində	-3939
▁budur	-3940
anını	-3941
▁Yaş	-3942
uluq	-3943
▁raket	-3944
▁övlad	-3945
▁Füzuli	-3946
▁fəlsəf	-3947
ch	-3948
Birlik	-3949
▁kütləvi	-3950
adət	-3951
▁Amerika	-3952
imdə	-3953
alardan	-3954
qanı	-3955
siyasi	-3956
▁bilən	-3957
▁əlamət	-3958
linin	-3959
▁mühafizə	-3960
ardı	-3961
kanı	-3962
▁Sam	-3963
▁sovet	-3964
▁İlk	-3965
▁ərazidə	-3966
Team	-3967
▁Ver	-3968
▁Artıq	-3969
ünas	-3970
▁düşmüş	-3971
▁küləyi	-3972
iyin	-3973
▁km	-3974
▁zir	-3975
lır	-3976
▁çoxlu	-3977
uma	-3978
ton	-3979
hiz	-3980
▁Təhlükəsizlik	-3981
▁həlak	-3982
▁töh	-3983
uriyent	-3984
▁qabağ	-3985
▁195	-3986
ləşmiş	-3987
▁sınaq	-3988
qilab	-3989
▁cam	-3990
▁sabah	-3991
ex	-3992
▁daşın	-3993
▁istəyən	-3994
▁siyasəti	-3995
ımda	-3996
▁ötür	-3997
sək	-3998
▁həftə	-3999
▁çevir	-4000
▁demokr	-4001
▁mütəxəssis	-4002
▁seçkilər	-4003
**	-4004
▁nümayəndəsi	-4005
▁anal	-4006
▁nəf	-4007
▁Ərdoğ	-4008
▁alaraq	-4009
▁konkret	-4010
▁götürüb	-4011
▁yey	-4012
▁vurub	-4013
▁olanda	-4014
▁iyun	-4015
əncər	-4016
▁film	-4017
▁Mur	-4018
▁otaq	-4019
▁fevral	-4020
▁arzu	-4021
antin	-4022
liyində	-4023
dikcə	-4024
▁universitet	-4025
▁2.	-4026
ənilən	-4027
▁deputat	-4028
▁Siy	-4029
▁könül	-4030
▁olunmuşdur	-4031
▁ordu	-4032
Press	-4033
Xatırladaq	-4034
▁doğur	-4035
▁malikdir	-4036
▁dəfələrlə	-4037
▁kəşf	-4038
▁vasitə	-4039
▁qurban	-4040
cılı	-4041
▁mərasim	-4042
▁rəsm	-4043
▁Yusif	-4044
▁əslində	-4045
▁çağırış	-4046
▁uşaqlar	-4047
▁əsir	-4048
cədə	-4049
▁xoşbəxt	-4050
▁Paşin	-4051
▁Məclisin	-4052
▁ölkələrin	-4053
▁rom	-4054
xrac	-4055
▁Zər	-4056
▁Mal	-4057
▁olmadan	-4058
ılaşdır	-4059
▁yor	-4060
▁Komitəsinin	-4061
▁Cəl	-4062
tin	-4063
olkov	-4064
ba	-4065
▁kəskin	-4066
olun	-4067
▁arvad	-4068
▁tərəfi	-4069
BirlikTeam	-4070
▁tərcü	-4071
▁nəsə	-4072
ren	-4073
▁bacı	-4074
▁sahəsi	-4075
▁vaksin	-4076
arlar	-4077
▁güz	-4078
▁ehtimal	-4079
▁İddi	-4080
▁potensi	-4081
▁tay	-4082
▁səbəbi	-4083
ədd	-4084
▁Ol	-4085
▁blok	-4086
▁İranın	-4087
asil	-4088
▁orqanları	-4089
▁Xüs	-4090
▁Hərbi	-4091
əna	-4092
▁səsi	-4093
▁mübadil	-4094
əfiq	-4095
▁əmr	-4096
SC	-4097
üley	-4098
dülər	-4099
▁Britan	-4100
▁vermir	-4101
siyanın	-4102
▁AT	-4103
▁Cəmiyyət	-4104
▁Nəti	-4105
▁sahibi	-4106
ildi	-4107
ruz	-4108
ımın	-4109
▁böh	-4110
▁Qurban	-4111
▁Rəh	-4112
30	-4113
▁Sey	-4114
ımıza	-4115
▁Sumqayıt	-4116
▁tutulub	-4117
qid	-4118
ülür	-4119
▁vəh	-4120
▁Qub	-4121
▁ömr	-4122
▁xatir	-4123
ura	-4124
▁regional	-4125
▁En	-4126
▁tənzim	-4127
urlar	-4128
▁deyirəm	-4129
əbbət	-4130
▁iclasında	-4131
▁Doğ	-4132
gedən	-4133
veç	-4134
▁human	-4135
▁yaşadığı	-4136
▁Qərar	-4137
▁Prezidentinin	-4138
▁birinin	-4139
ibə	-4140
▁rəhbərlik	-4141
əkil	-4142
▁çalışır	-4143
ahir	-4144
▁müvəqqəti	-4145
und	-4146
layan	-4147
ğəmbər	-4148
▁indiy	-4149
▁Re	-4150
avüz	-4151
olofi	-4152
▁kəndində	-4153
ülə	-4154
▁1,	-4155
▁dinc	-4156
▁cəbh	-4157
▁Mustaf	-4158
▁hökuməti	-4159
rast	-4160
▁xalqının	-4161
▁Mis	-4162
oran	-4163
▁həlli	-4164
dimir	-4165
▁cəmi	-4166
çıq	-4167
▁bilərəm	-4168
6,	-4169
▁ictimaiyyət	-4170
▁yemək	-4171
▁fot	-4172
▁inkişafına	-4173
▁tədris	-4174
örə	-4175
▁elem	-4176
▁internet	-4177
▁Keç	-4178
▁tabe	-4179
▁meh	-4180
18	-4181
▁qala	-4182
lərimizin	-4183
▁unut	-4184
▁bənd	-4185
▁post	-4186
▁sus	-4187
uf	-4188
diyiniz	-4189
üstəm	-4190
▁Xəst	-4191
▁virus	-4192
▁sanki	-4193
yut	-4194
▁odur	-4195
▁rey	-4196
▁Nik	-4197
öndür	-4198
1,	-4199
vaz	-4200
▁başını	-4201
▁görüb	-4202
▁bağlıdır	-4203
▁Hələ	-4204
▁15-	-4205
▁Frans	-4206
▁Mahmud	-4207
▁Tramp	-4208
7,	-4209
4,	-4210
▁metr	-4211
▁Konstit	-4212
▁yaşı	-4213
▁ko	-4214
▁vahid	-4215
▁Hadisə	-4216
▁qulaq	-4217
▁musiqi	-4218
▁müharibəsi	-4219
▁buraxılış	-4220
adək	-4221
▁başı	-4222
▁gələr	-4223
▁layihəsi	-4224
▁Fond	-4225
▁Mirzə	-4226
▁İnstitut	-4227
iyar	-4228
On	-4229
çısı	-4230
▁faci	-4231
aliya	-4232
▁danışıqlar	-4233
gəl	-4234
▁nü	-4235
mrük	-4236
▁işin	-4237
▁biridir	-4238
▁sonrakı	-4239
▁daxilində	-4240
▁Daş	-4241
▁doğul	-4242
terPress	-4243
15	-4244
▁Val	-4245
▁satış	-4246
▁Tarix	-4247
▁oğur	-4248
▁bilərik	-4249
▁keçirdiyi	-4250
örək	-4251
las	-4252
▁təsiri	-4253
udi	-4254
▁anlam	-4255
ənə	-4256
▁Hüseynov	-4257
▁II	-4258
▁Düz	-4259
▁COVID	-4260
rada	-4261
▁Bakıya	-4262
▁kitabın	-4263
olu	-4264
▁təsad	-4265
▁müdafi	-4266
edici	-4267
▁bələd	-4268
▁ermənilərin	-4269
ülməsi	-4270
▁sp	-4271
əqliyyat	-4272
çilərin	-4273
masından	-4274
rans	-4275
▁funk	-4276
▁qoruy	-4277
avan	-4278
iss	-4279
▁In	-4280
quş	-4281
dün	-4282
▁Lən	-4283
▁sürücü	-4284
xalif	-4285
ladığı	-4286
mos	-4287
▁turizm	-4288
İs	-4289
▁temperaturu	-4290
▁Qal	-4291
▁media	-4292
▁Şim	-4293
ing	-4294
uram	-4295
▁dəhş	-4296
▁dan	-4297
▁Neft	-4298
obus	-4299
Faktla	-4300
▁katibi	-4301
aspor	-4302
▁şərəf	-4303
▁sü	-4304
uv	-4305
▁əsl	-4306
▁arabir	-4307
▁ürəy	-4308
▁təyyar	-4309
▁təchiz	-4310
▁instan	-4311
Bakı	-4312
▁fərdi	-4313
▁bab	-4314
▁uzan	-4315
▁60	-4316
▁tövsiyə	-4317
1.	-4318
standa	-4319
▁adamı	-4320
perativ	-4321
▁Nur	-4322
▁giriş	-4323
▁xəstəl	-4324
▁soyuq	-4325
▁çəkib	-4326
▁ağıl	-4327
▁San	-4328
▁aldı	-4329
adem	-4330
▁mövcuddur	-4331
urd	-4332
▁yoluxma	-4333
▁qalmış	-4334
inki	-4335
▁Kan	-4336
çün	-4337
itor	-4338
▁zül	-4339
▁tibb	-4340
▁mm	-4341
muşdur	-4342
ati	-4343
▁9-	-4344
▁növbədə	-4345
vvür	-4346
▁qorum	-4347
▁təcavüz	-4348
▁qohum	-4349
▁fikrin	-4350
▁əb	-4351
dığım	-4352
lıdır	-4353
▁Şər	-4354
▁üstünlük	-4355
▁hissəsində	-4356
▁Ap	-4357
▁Ərəb	-4358
▁er	-4359
ərçək	-4360
▁saç	-4361
▁qadağan	-4362
he	-4363
▁deyər	-4364
▁Mək	-4365
ələrinə	-4366
▁Söz	-4367
▁məcburi	-4368
▁video	-4369
▁ixrac	-4370
▁qüvvələri	-4371
▁tərb	-4372
▁iri	-4373
adakı	-4374
▁Əziz	-4375
laşma	-4376
▁məsələsi	-4377
aktik	-4378
▁Qəz	-4379
▁2019-	-4380
:00-	-4381
eddi	-4382
▁Əsas	-4383
▁birləşdir	-4384
▁Bəzi	-4385
▁tərəfdaş	-4386
Erməni	-4387
▁maddəsi	-4388
isindən	-4389
ökumət	-4390
nət	-4391
yla	-4392
elen	-4393
ləyə	-4394
lor	-4395
▁mexan	-4396
▁Xət	-4397
▁azı	-4398
▁tənqid	-4399
▁aləm	-4400
mu	-4401
▁gələcəkdə	-4402
▁həft	-4403
birinə	-4404
▁Almaniya	-4405
▁təhvil	-4406
▁nizam	-4407
rasiya	-4408
▁müddətdə	-4409
tik	-4410
▁həyatı	-4411
▁(2	-4412
▁tərtib	-4413
rastruktur	-4414
▁Mül	-4415
gen	-4416
likdən	-4417
maqda	-4418
▁ep	-4419
avat	-4420
▁qayğı	-4421
epar	-4422
maları	-4423
dədir	-4424
▁deyən	-4425
▁Pol	-4426
▁adi	-4427
▁indiki	-4428
ışdı	-4429
▁boyun	-4430
▁gediş	-4431
lərdir	-4432
▁çök	-4433
ımızı	-4434
▁yaşayır	-4435
▁bol	-4436
▁bəri	-4437
▁Xocalı	-4438
▁faizi	-4439
▁nisb	-4440
tam	-4441
▁fikirləş	-4442
▁hədəf	-4443
▁məşq	-4444
vənd	-4445
▁quruluş	-4446
əcc	-4447
▁göstəril	-4448
▁ölkələrdə	-4449
▁şəxsiyyət	-4450
▁yaradıcılı	-4451
▁prot	-4452
▁tapa	-4453
▁başlayır	-4454
▁işğaldan	-4455
▁tərz	-4456
▁her	-4457
▁7-	-4458
lav	-4459
▁Qara	-4460
▁içərisində	-4461
▁rek	-4462
▁görmək	-4463
adlı	-4464
▁Putin	-4465
▁məscid	-4466
eganə	-4467
12	-4468
▁bəhs	-4469
▁pers	-4470
acağıq	-4471
▁Müəlli	-4472
▁bildirdi	-4473
açın	-4474
▁ədəbi	-4475
▁kül	-4476
▁Şirvan	-4477
▁narkotik	-4478
▁miqdarda	-4479
atlı	-4480
▁qəhrəman	-4481
▁pandem	-4482
▁olmuşdu	-4483
▁olmadığını	-4484
▁Zeyn	-4485
▁Axı	-4486
▁cəhətdən	-4487
▁Səf	-4488
▁infek	-4489
▁sün	-4490
▁törə	-4491
mer	-4492
▁atası	-4493
maya	-4494
▁193	-4495
olkovnik	-4496
üleyman	-4497
▁Moskva	-4498
let	-4499
▁məmur	-4500
afiz	-4501
şünas	-4502
▁kart	-4503
▁bərk	-4504
laşdırılması	-4505
bəst	-4506
giltər	-4507
▁biznes	-4508
".	-4509
▁6-	-4510
▁soyqır	-4511
dətli	-4512
olla	-4513
duğunu	-4514
▁kin	-4515
▁birində	-4516
▁uğurlu	-4517
ke	-4518
▁Tək	-4519
ıldığı	-4520
3.	-4521
mayacaq	-4522
▁köhnə	-4523
▁karantin	-4524
.–	-4525
▁guya	-4526
▁Nərim	-4527
▁hün	-4528
▁Amerik	-4529
▁sə	-4530
▁sürətlə	-4531
dıb	-4532
▁Mədən	-4533
▁bura	-4534
▁günlərdə	-4535
▁Üz	-4536
▁dərman	-4537
tis	-4538
Azər	-4539
▁formada	-4540
▁mağ	-4541
▁Yun	-4542
▁çətinlik	-4543
▁səmi	-4544
ahi	-4545
▁Hac	-4546
▁ziyarət	-4547
arlıq	-4548
▁8-	-4549
▁hazırlaş	-4550
▁bağış	-4551
izmin	-4552
▁kağız	-4553
▁Təd	-4554
▁zidd	-4555
▁münasibətilə	-4556
▁etdim	-4557
▁davamlı	-4558
lanması	-4559
süz	-4560
▁infrastruktur	-4561
▁res	-4562
▁yaradıcı	-4563
▁əsaslı	-4564
▁rüt	-4565
▁Lənkər	-4566
▁əlində	-4567
re	-4568
▁sayda	-4569
▁mem	-4570
▁dəhliz	-4571
▁rayonlarında	-4572
▁zon	-4573
▁yaratmaq	-4574
▁istənilən	-4575
lilər	-4576
▁fəs	-4577
ağının	-4578
▁qıl	-4579
▁yolla	-4580
▁şərq	-4581
▁birdən	-4582
▁Rüstəm	-4583
▁təqdir	-4584
▁ust	-4585
res	-4586
allı	-4587
▁artım	-4588
%-	-4589
əcəyik	-4590
ləndi	-4591
▁etməyi	-4592
▁quru	-4593
▁deyirlər	-4594
▁seçki	-4595
▁ölkəmizin	-4596
▁strateji	-4597
avr	-4598
▁du	-4599
▁yarımada	-4600
▁olduğundan	-4601
əkkəb	-4602
▁yaxş	-4603
▁Vla	-4604
əth	-4605
▁deyildir	-4606
▁araşdırmalar	-4607
▁kol	-4608
əbrayıl	-4609
▁açıqlamasında	-4610
nən	-4611
▁Men	-4612
▁Ölkə	-4613
mizdə	-4614
▁ümumiyyətlə	-4615
▁Dil	-4616
▁etdirir	-4617
▁Gö	-4618
▁ulduz	-4619
▁müqəddəs	-4620
▁sənaye	-4621
▁müdiri	-4622
yaş	-4623
▁əziz	-4624
lərim	-4625
mizə	-4626
▁nağ	-4627
▁olundu	-4628
enz	-4629
▁ünv	-4630
▁tutulur	-4631
8,	-4632
siyasına	-4633
▁Günəş	-4634
ATO	-4635
siyalar	-4636
▁biler	-4637
ırsan	-4638
▁sank	-4639
dart	-4640
piya	-4641
▁of	-4642
ıqlı	-4643
▁Qır	-4644
▁heyət	-4645
▁sərəncam	-4646
acam	-4647
əlim	-4648
sinin	-4649
▁Əslində	-4650
▁olduqca	-4651
eter	-4652
▁cavablandır	-4653
kun	-4654
▁Səfər	-4655
▁nisbətən	-4656
▁müəssis	-4657
▁edilmə	-4658
ayə	-4659
▁tanınmış	-4660
▁televiz	-4661
ix	-4662
məramlı	-4663
▁mahnı	-4664
▁komandan	-4665
▁məqal	-4666
len	-4667
▁gəmi	-4668
▁apellyasiya	-4669
diniz	-4670
▁NATO	-4671
▁ölən	-4672
▁orqanlarının	-4673
əyir	-4674
eyten	-4675
▁mu	-4676
▁gor	-4677
leri	-4678
çin	-4679
▁Uz	-4680
▁müdax	-4681
▁qlobal	-4682
▁edirdilər	-4683
▁qəna	-4684
▁altı	-4685
▁reda	-4686
▁Sultan	-4687
▁Tib	-4688
▁Qasım	-4689
▁üstə	-4690
eytenant	-4691
▁arxasında	-4692
▁səbəbindən	-4693
▁Yenə	-4694
timai	-4695
▁altına	-4696
▁invest	-4697
▁ağrı	-4698
▁mərhələ	-4699
ləmək	-4700
mələr	-4701
▁özündə	-4702
▁44	-4703
▁dö	-4704
▁çəkir	-4705
▁Olim	-4706
▁MM	-4707
9,	-4708
▁açıb	-4709
▁gözləyir	-4710
diyindən	-4711
▁bölgədə	-4712
oh	-4713
▁ziyan	-4714
yaz	-4715
▁istisna	-4716
▁30-	-4717
atına	-4718
lənin	-4719
▁kommun	-4720
aram	-4721
▁təbiət	-4722
lənmiş	-4723
▁ölkələr	-4724
ƏN	-4725
▁sut	-4726
AM	-4727
saylı	-4728
▁sizi	-4729
▁şəhərinin	-4730
▁təsərrüfatı	-4731
▁etiraf	-4732
▁cəri	-4733
▁birinə	-4734
▁Səb	-4735
▁rəy	-4736
▁elədi	-4737
▁sayəsində	-4738
▁şübhəli	-4739
masın	-4740
for	-4741
▁kitabxan	-4742
su	-4743
▁//	-4744
▁döz	-4745
▁Bəz	-4746
▁dövrü	-4747
▁şəraiti	-4748
salı	-4749
▁zərb	-4750
▁məntiq	-4751
▁sərbəst	-4752
əlz	-4753
▁Əsəd	-4754
▁görkəm	-4755
▁Şuşa	-4756
▁verilmiş	-4757
▁kurs	-4758
ılmalıdır	-4759
▁dik	-4760
▁Nizami	-4761
▁şəhərin	-4762
▁tanım	-4763
▁müsabiq	-4764
▁yayım	-4765
▁çiç	-4766
▁həqiqət	-4767
▁XI	-4768
alət	-4769
essor	-4770
▁müxalif	-4771
▁mülkiyyət	-4772
▁fikri	-4773
▁port	-4774
qir	-4775
▁sərf	-4776
inc	-4777
▁Əmir	-4778
▁faktı	-4779
müh	-4780
▁siq	-4781
Onun	-4782
amın	-4783
▁İraq	-4784
▁qətnamə	-4785
▁iyunun	-4786
▁Mərkəzinin	-4787
oviç	-4788
▁çirk	-4789
▁sonunda	-4790
▁Cüm	-4791
iant	-4792
▁Rusiyaya	-4793
▁mürəkkəb	-4794
əcər	-4795
▁etdiril	-4796
▁uğurla	-4797
ber	-4798
lının	-4799
▁qardaşı	-4800
tih	-4801
▁doğma	-4802
lıqda	-4803
▁əşy	-4804
ındakı	-4805
▁kimsə	-4806
abad	-4807
İD	-4808
▁həyatını	-4809
▁ah	-4810
▁2016-	-4811
üqar	-4812
▁Mon	-4813
eport	-4814
▁Hesab	-4815
▁olmasına	-4816
▁Ox	-4817
▁fir	-4818
▁Sadə	-4819
▁\	-4820
▁gözləri	-4821
ğını	-4822
▁ardı	-4823
▁gördüm	-4824
ine	-4825
▁AZ	-4826
▁mediaya	-4827
▁Sar	-4828
▁əziyyət	-4829
riq	-4830
▁üzü	-4831
ko	-4832
▁Səhiyyə	-4833
▁olmalı	-4834
▁addımlar	-4835
ımi	-4836
▁səmərəli	-4837
paq	-4838
▁tərəfdar	-4839
▁məhəbbət	-4840
▁dial	-4841
▁edəcəy	-4842
▁İngiltər	-4843
▁2018-	-4844
veriş	-4845
ülü	-4846
▁inşa	-4847
▁saxlam	-4848
▁birini	-4849
▁ölkəyə	-4850
▁aprelin	-4851
▁imiş	-4852
▁ölkəmizdə	-4853
AZ	-4854
▁Vladimir	-4855
▁Rusiyada	-4856
▁çoxu	-4857
▁qarşılaş	-4858
arx	-4859
evik	-4860
▁keçdi	-4861
▁mənfi	-4862
▁lazımi	-4863
▁element	-4864
▁edilərək	-4865
mədə	-4866
▁ip	-4867
▁partlay	-4868
▁avtobus	-4869
▁çempion	-4870
▁Nəticədə	-4871
▁uşaqların	-4872
▁Hindi	-4873
▁Süleyman	-4874
▁35	-4875
sinlər	-4876
▁gördü	-4877
unt	-4878
▁yeganə	-4879
▁vəzifə	-4880
▁tutulan	-4881
▁Şimali	-4882
▁Qarabağda	-4883
▁Har	-4884
▁qismində	-4885
▁zav	-4886
▁olmayacaq	-4887
▁münasibətləri	-4888
▁soruşdu	-4889
tahan	-4890
▁Əsgər	-4891
▁bəd	-4892
ometr	-4893
▁martın	-4894
▁dərc	-4895
▁proqnoz	-4896
▁fəaliyyətini	-4897
▁aidiyyəti	-4898
▁oğul	-4899
▁təsə	-4900
▁Hacıyev	-4901
▁aldığı	-4902
rəm	-4903
▁görən	-4904
▁Qazaxı	-4905
▁məndən	-4906
▁Sabir	-4907
bituriyent	-4908
16	-4909
▁Novruz	-4910
dığına	-4911
▁şəklində	-4912
▁yıx	-4913
▁haqqı	-4914
əcəklər	-4915
▁təsis	-4916
▁camaat	-4917
▁əvvəllər	-4918
▁bilərdi	-4919
▁Var	-4920
▁qərara	-4921
An	-4922
▁Həy	-4923
▁saray	-4924
▁iq	-4925
Qarabağ	-4926
▁gel	-4927
▁anası	-4928
ələb	-4929
▁divar	-4930
ələş	-4931
ərəm	-4932
▁Bunlar	-4933
çıların	-4934
son	-4935
8.	-4936
▁mayın	-4937
▁təhlil	-4938
▁münasibətlərin	-4939
irt	-4940
▁Məclis	-4941
▁Cəbrayıl	-4942
▁təşəbbüs	-4943
▁sahələrdə	-4944
▁sen	-4945
▁onlarla	-4946
▁adamın	-4947
▁xəstəxanaya	-4948
imizin	-4949
▁Vur	-4950
??	-4951
▁dokt	-4952
▁dərd	-4953
25	-4954
▁sonuncu	-4955
alının	-4956
▁variant	-4957
▁sifar	-4958
▁pulu	-4959
▁etməli	-4960
▁ton	-4961
▁deyirdi	-4962
çü	-4963
.2019	-4964
▁Səməd	-4965
▁mövs	-4966
iyadan	-4967
▁müqayisədə	-4968
▁günəş	-4969
▁Həsənov	-4970
▁aylıq	-4971
▁bilmər	-4972
deri	-4973
▁reak	-4974
▁Niyə	-4975
▁İdarə	-4976
▁Bakının	-4977
▁surətdə	-4978
Mü	-4979
ladım	-4980
idro	-4981
orit	-4982
▁paltar	-4983
▁mükafat	-4984
▁İttifaqı	-4985
▁Necə	-4986
▁bilik	-4987
▁təəssüf	-4988
yanı	-4989
▁bilirəm	-4990
▁problemi	-4991
▁qərb	-4992
Son	-4993
atını	-4994
▁çalışan	-4995
▁muz	-4996
▁alman	-4997
▁ri	-4998
▁Qanunun	-4999
▁dəstəyi	-5000
PA	-5001
amal	-5002
▁sav	-5003
▁getmək	-5004
ven	-5005
▁hərəkəti	-5006
▁Əliyeva	-5007
▁riyaziyyat	-5008
▁Elm	-5009
Məlum	-5010
▁cox	-5011
▁2015-	-5012
▁pər	-5013
siyaları	-5014
▁Cavabdeh	-5015
lardır	-5016
▁balaca	-5017
▁saxlamaq	-5018
ılda	-5019
iyanı	-5020
▁tipli	-5021
ede	-5022
▁hökmü	-5023
▁endir	-5024
▁him	-5025
▁ucuz	-5026
gü	-5027
etin	-5028
▁dam	-5029
▁məhkəməyə	-5030
▁Gü	-5031
lanmış	-5032
▁vasitəsi	-5033
▁qulluqçu	-5034
▁oxun	-5035
▁müddəti	-5036
▁nəticələri	-5037
▁komit	-5038
▁vətəndaşların	-5039
▁mütt	-5040
▁olmağa	-5041
▁11-	-5042
▁olunaraq	-5043
prezident	-5044
▁Fik	-5045
maqdan	-5046
▁tapıb	-5047
▁əlindən	-5048
▁Muxtar	-5049
▁yanvarın	-5050
eparat	-5051
▁qələbə	-5052
▁Rəş	-5053
▁yazın	-5054
laya	-5055
▁söyləyib	-5056
alarından	-5057
▁gedər	-5058
▁pəncər	-5059
▁MMC	-5060
▁əksini	-5061
üngül	-5062
▁sentyabrın	-5063
adiq	-5064
▁ehtimalı	-5065
▁Azərbaycanla	-5066
▁yerləşdirilib	-5067
▁İddiaçı	-5068
▁sözlər	-5069
▁ordusu	-5070
əşər	-5071
unuz	-5072
▁tax	-5073
2.	-5074
▁göstərmək	-5075
▁mö	-5076
▁zal	-5077
istik	-5078
assasiya	-5079
▁qanunun	-5080
▁fevralın	-5081
▁süt	-5082
▁maarif	-5083
▁Birləşmiş	-5084
səy	-5085
isiya	-5086
▁ik	-5087
▁190	-5088
▁gəm	-5089
▁Hamı	-5090
▁görmüş	-5091
▁aq	-5092
sinə	-5093
▁gizli	-5094
▁dəyəri	-5095
▁tutulmuş	-5096
▁çır	-5097
▁təmir	-5098
▁teatr	-5099
▁bərp	-5100
▁xəstə	-5101
▁humanitar	-5102
laşıb	-5103
▁dalğ	-5104
▁mesaj	-5105
▁tul	-5106
▁yerləşir	-5107
▁təhlükəli	-5108
▁aparıcı	-5109
▁ətraflı	-5110
▁əməkdaşlığın	-5111
ind	-5112
▁Hüquq	-5113
ılmışdı	-5114
▁veriləcək	-5115
▁təcili	-5116
▁təsəvvür	-5117
▁arv	-5118
▁iclas	-5119
usunda	-5120
▁meyit	-5121
▁olduğuna	-5122
ros	-5123
▁inqilab	-5124
ivə	-5125
▁imper	-5126
▁şöbəsinin	-5127
▁Ölk	-5128
əhlə	-5129
əcəb	-5130
ürs	-5131
▁standart	-5132
▁diplomatik	-5133
▁sevgi	-5134
▁Be	-5135
luğun	-5136
▁yoldaşı	-5137
anıb	-5138
▁dəyişib	-5139
▁əriz	-5140
▁Sənin	-5141
▁imkanı	-5142
▁edilməsinə	-5143
▁Asiya	-5144
▁12-	-5145
vən	-5146
▁sonradan	-5147
▁müddətində	-5148
▁edərkən	-5149
▁edilməlidir	-5150
▁vəkili	-5151
▁əlaqələr	-5152
▁Laçın	-5153
▁tərkibində	-5154
▁tutan	-5155
▁Bağ	-5156
▁tikil	-5157
▁yarar	-5158
▁dərk	-5159
iyasında	-5160
atların	-5161
▁diz	-5162
▁ney	-5163
dirlər	-5164
▁məmnun	-5165
▁minnət	-5166
▁imzalayıb	-5167
▁Kabineti	-5168
amaq	-5169
▁peşəkar	-5170
▁hazırlıq	-5171
əyal	-5172
▁sözlə	-5173
?–	-5174
diyimiz	-5175
baz	-5176
▁fəaliyyətinin	-5177
▁Tay	-5178
▁bircə	-5179
▁bilərsiz	-5180
▁Onda	-5181
▁Akadem	-5182
▁bunları	-5183
ükür	-5184
▁Rəsul	-5185
▁sənətkar	-5186
▁şəraitində	-5187
iyasına	-5188
▁edilməsini	-5189
▁yolda	-5190
▁səviyyəsində	-5191
▁sarı	-5192
17	-5193
iliyin	-5194
▁doldur	-5195
▁qırmızı	-5196
▁Liq	-5197
▁keçirmək	-5198
ətlə	-5199
▁kompleks	-5200
▁Azərbaycanı	-5201
▁dostluq	-5202
apon	-5203
İL	-5204
▁təhqir	-5205
veren	-5206
▁lideri	-5207
▁duz	-5208
lari	-5209
▁kapit	-5210
ai	-5211
▁nif	-5212
▁ödəy	-5213
▁Şey	-5214
▁sülhməramlı	-5215
▁güman	-5216
▁özləri	-5217
▁Mehriban	-5218
▁qüvvələrinin	-5219
▁tanıy	-5220
diklərini	-5221
▁80	-5222
▁məsələyə	-5223
▁əlaqələri	-5224
▁vitse	-5225
▁bıç	-5226
▁daşıyır	-5227
anından	-5228
▁əsrdə	-5229
▁münasibətlər	-5230
▁Lənkəran	-5231
▁nik	-5232
▁Yux	-5233
▁ölkələri	-5234
övh	-5235
▁heyəti	-5236
▁iddiaçı	-5237
▁Ukraynanın	-5238
▁dünən	-5239
eor	-5240
şək	-5241
çıları	-5242
▁yataq	-5243
▁sığorta	-5244
▁islam	-5245
▁Xidməti	-5246
▁70	-5247
▁kimə	-5248
əccüb	-5249
▁2021-	-5250
▁görmə	-5251
▁fəx	-5252
▁istehsalı	-5253
ərdi	-5254
▁müəyyənləşdir	-5255
▁baxdı	-5256
tensiv	-5257
▁Universitetinin	-5258
işir	-5259
▁etdikləri	-5260
IN	-5261
▁0,	-5262
▁Naz	-5263
▁yaranmış	-5264
▁ardıcıl	-5265
▁bütövlüy	-5266
▁küçəsi	-5267
yon	-5268
▁İrəvan	-5269
boy	-5270
▁Orta	-5271
▁özün	-5272
://	-5273
▁doğr	-5274
▁gücləndir	-5275
▁Kabinet	-5276
▁agent	-5277
aqif	-5278
ərin	-5279
▁mərtəb	-5280
ayn	-5281
▁tərcümə	-5282
▁Man	-5283
▁keçirib	-5284
▁təhs	-5285
▁Qadın	-5286
iyyətini	-5287
▁təhlükə	-5288
▁çağ	-5289
qanun	-5290
sizlik	-5291
▁eff	-5292
▁sözügedən	-5293
▁istehlak	-5294
sub	-5295
▁əli	-5296
▁arzul	-5297
▁hündür	-5298
▁bölgə	-5299
▁istəm	-5300
com	-5301
▁çoxsaylı	-5302
▁Şamaxı	-5303
▁tələblərinə	-5304
▁fars	-5305
altı	-5306
▁Qarab	-5307
▁deyim	-5308
▁azadlıq	-5309
▁əvəzinə	-5310
▁toq	-5311
60	-5312
Hər	-5313
▁Başqa	-5314
▁həyəc	-5315
▁həcm	-5316
▁aparır	-5317
▁cəm	-5318
▁ATƏT	-5319
▁Cəlal	-5320
▁nədən	-5321
▁xətti	-5322
▁problemlər	-5323
ovu	-5324
▁kir	-5325
▁həqiqətən	-5326
imdən	-5327
▁nazirinin	-5328
▁ikitərəfli	-5329
eya	-5330
▁rədd	-5331
▁intensiv	-5332
▁nəinki	-5333
▁onsuz	-5334
▁zabit	-5335
▁uçuş	-5336
dığından	-5337
▁Üst	-5338
▁31	-5339
▁açıqlayıb	-5340
▁adından	-5341
▁Təs	-5342
▁əksəriyyəti	-5343
▁razılı	-5344
▁vaxtlar	-5345
ğından	-5346
▁Əks	-5347
ılmasının	-5348
▁sakinləri	-5349
▁dünyasını	-5350
▁Azad	-5351
▁bunların	-5352
▁texnik	-5353
▁ömür	-5354
▁qaş	-5355
▁prospekt	-5356
▁abituriyent	-5357
ovuz	-5358
▁çəkən	-5359
▁şəxslərə	-5360
ınc	-5361
▁təzə	-5362
▁Ermənistana	-5363
4.	-5364
▁olurdu	-5365
▁nüvə	-5366
▁Zaq	-5367
inad	-5368
iqtis	-5369
▁keçirir	-5370
oda	-5371
luğunda	-5372
▁əlbəttə	-5373
▁Şəki	-5374
siyaya	-5375
çilərinin	-5376
▁ele	-5377
▁kədər	-5378
okol	-5379
lükdə	-5380
▁evin	-5381
▁piyada	-5382
▁oktyabrın	-5383
▁quy	-5384
▁hədd	-5385
▁Tam	-5386
▁mənada	-5387
▁Yaxın	-5388
▁yarımadasında	-5389
▁düşüncə	-5390
▁qətlə	-5391
▁yüngül	-5392
▁etnik	-5393
İV	-5394
▁bom	-5395
iyyəsi	-5396
5.	-5397
Ar	-5398
▁qəf	-5399
Rusiya	-5400
▁istədiy	-5401
▁gücü	-5402
▁2017-	-5403
əmən	-5404
mirəm	-5405
mat	-5406
▁Mas	-5407
▁balıq	-5408
milli	-5409
ilərə	-5410
saydı	-5411
▁atəşə	-5412
▁Rəcəb	-5413
▁istir	-5414
▁Şöb	-5415
▁plat	-5416
▁müay	-5417
▁yaşıl	-5418
▁Müb	-5419
▁vəhş	-5420
umun	-5421
▁Məni	-5422
▁formalaşdır	-5423
▁Ağır	-5424
▁mübadiləsi	-5425
▁hek	-5426
▁Məhz	-5427
▁olmadığı	-5428
▁Parlament	-5429
▁Qoy	-5430
▁No	-5431
▁Nikol	-5432
göz	-5433
40	-5434
▁Mak	-5435
▁başlı	-5436
▁May	-5437
▁hissi	-5438
lərarası	-5439
▁İnkişaf	-5440
▁Ərdoğan	-5441
ılaraq	-5442
alandır	-5443
▁cərimə	-5444
Belə	-5445
▁xarakterli	-5446
ht	-5447
▁yolunda	-5448
▁yeddi	-5449
▁təsadüf	-5450
▁yaşamaq	-5451
▁dövlətinin	-5452
▁(“	-5453
▁model	-5454
alaş	-5455
İR	-5456
▁reji	-5457
▁pat	-5458
▁Tə	-5459
▁Möv	-5460
▁minnətdar	-5461
düyünü	-5462
▁vaxtında	-5463
▁əx	-5464
7.	-5465
▁evi	-5466
ne	-5467
▁çəkin	-5468
iye	-5469
▁vaxtda	-5470
▁Olimpiya	-5471
açının	-5472
▁işləyir	-5473
▁işg	-5474
▁Tal	-5475
▁həqiqi	-5476
▁danışıb	-5477
▁500	-5478
▁fran	-5479
▁Paşinyan	-5480
▁Mədəniyyət	-5481
▁terrorçu	-5482
▁ildir	-5483
▁Yaz	-5484
▁unu	-5485
▁zərbə	-5486
▁turist	-5487
▁hökmdar	-5488
▁güzəş	-5489
▁olmasını	-5490
▁90	-5491
ST	-5492
▁noyabrın	-5493
▁insanlara	-5494
▁artırılması	-5495
▁Qərargah	-5496
▁səmimi	-5497
▁suveren	-5498
▁qorunması	-5499
ruc	-5500
DF	-5501
▁rolu	-5502
lənmə	-5503
▁hara	-5504
▁insanları	-5505
▁tayf	-5506
mosfer	-5507
▁nəsil	-5508
▁tezliklə	-5509
oma	-5510
▁Kənd	-5511
İnterPress	-5512
▁keçirilmiş	-5513
▁fikrincə	-5514
▁sabiq	-5515
▁dəlil	-5516
▁toqquş	-5517
▁kilometr	-5518
▁məlumatı	-5519
▁hissəsini	-5520
mirdi	-5521
əsimi	-5522
▁bölüş	-5523
▁cavan	-5524
▁vərəq	-5525
▁təkmil	-5526
▁istəmir	-5527
▁subyekt	-5528
▁şahid	-5529
sini	-5530
▁nəfəri	-5531
ye	-5532
▁qoydu	-5533
▁bəx	-5534
▁xüsusən	-5535
▁şəraitdə	-5536
agist	-5537
▁tədqiq	-5538
▁Axund	-5539
essual	-5540
▁şam	-5541
▁idilər	-5542
▁coğ	-5543
ələndir	-5544
rav	-5545
▁tədbirlərin	-5546
allah	-5547
up	-5548
▁Allahın	-5549
▁peyvənd	-5550
▁yaradılıb	-5551
▁oturub	-5552
▁hüquqları	-5553
80	-5554
▁xırda	-5555
▁Sadəcə	-5556
▁istinad	-5557
qur	-5558
▁Yalnız	-5559
▁başlayaraq	-5560
▁Hava	-5561
▁edilə	-5562
imizə	-5563
irmi	-5564
▁görkəmli	-5565
likləri	-5566
▁əq	-5567
▁musiq	-5568
tor	-5569
▁müştər	-5570
▁qəti	-5571
me	-5572
ürü	-5573
▁Er	-5574
▁tətbiqi	-5575
▁2022-	-5576
▁fır	-5577
▁Nat	-5578
▁inş	-5579
iza	-5580
▁Ukraynaya	-5581
mühafizə	-5582
▁çiçək	-5583
▁saatlarında	-5584
▁kimdə	-5585
▁Cümhur	-5586
▁edildiyi	-5587
çay	-5588
▁iyulun	-5589
iyalar	-5590
▁müttəfiq	-5591
▁obraz	-5592
▁Təbr	-5593
▁ödənil	-5594
eksan	-5595
ikasiya	-5596
▁olarsa	-5597
üstü	-5598
▁Dav	-5599
▁işləyən	-5600
can	-5601
burq	-5602
▁Müq	-5603
▁fak	-5604
▁seçil	-5605
▁daxildir	-5606
▁olduqda	-5607
arış	-5608
gin	-5609
▁başçısının	-5610
▁qətna	-5611
▁yarada	-5612
▁götürülüb	-5613
▁Şurası	-5614
▁əlil	-5615
əssas	-5616
▁Fövqəladə	-5617
▁Türkiyəyə	-5618
DA	-5619
men	-5620
▁yayın	-5621
ərçəkmiş	-5622
▁əlveriş	-5623
▁İsveç	-5624
▁deyəsən	-5625
▁yaranan	-5626
▁vacibdir	-5627
▁Murad	-5628
iqtisadi	-5629
avuş	-5630
Hazırda	-5631
▁göstəric	-5632
▁hec	-5633
▁günlük	-5634
▁resurs	-5635
▁maaş	-5636
▁Pey	-5637
▁içəri	-5638
▁əksinə	-5639
▁təəccüb	-5640
▁Abdullayev	-5641
sələr	-5642
mey	-5643
▁bilsin	-5644
▁yürüş	-5645
▁Müharib	-5646
▁gəlirdi	-5647
▁adamları	-5648
mayın	-5649
▁məhkəməsi	-5650
▁təşkili	-5651
azım	-5652
pektiv	-5653
▁tarixdə	-5654
▁qalmaq	-5655
▁olmayaraq	-5656
ləşdirmə	-5657
ıla	-5658
▁Minsk	-5659
▁yavaş	-5660
▁kolleg	-5661
ademi	-5662
▁kadr	-5663
▁rayonun	-5664
▁dekabrın	-5665
▁25-	-5666
ord	-5667
▁çoxdan	-5668
▁kq	-5669
▁Nazirliyindən	-5670
▁Məş	-5671
gid	-5672
▁məsələni	-5673
▁risk	-5674
Bildirilib	-5675
▁xeyr	-5676
▁vaksinasiya	-5677
13	-5678
üzə	-5679
pərvər	-5680
▁texnologiy	-5681
▁oz	-5682
▁yolun	-5683
▁zəhər	-5684
▁ordusunun	-5685
▁qanuni	-5686
emin	-5687
əkkiz	-5688
▁Paris	-5689
▁Gecə	-5690
▁təf	-5691
▁3.	-5692
ətini	-5693
▁bəlli	-5694
▁savaş	-5695
sağ	-5696
▁qram	-5697
▁şikayəti	-5698
▁külək	-5699
▁göstərib	-5700
▁maliyy	-5701
ünc	-5702
▁nah	-5703
exniki	-5704
bat	-5705
▁kənarda	-5706
6.	-5707
▁bənz	-5708
▁İctimai	-5709
▁xəbərdarlıq	-5710
ƏL	-5711
▁gerçək	-5712
▁olunduğu	-5713
▁Kö	-5714
▁İspan	-5715
▁əlini	-5716
atur	-5717
▁DİM	-5718
Allah	-5719
mon	-5720
ilməz	-5721
▁Ki	-5722
inda	-5723
▁sam	-5724
eqor	-5725
▁tərəfə	-5726
▁görüntü	-5727
▁üzünə	-5728
▁ərzaq	-5729
▁göstərdi	-5730
▁nəticələn	-5731
▁olmadı	-5732
▁köçkün	-5733
oli	-5734
▁XİN	-5735
▁and	-5736
▁səhn	-5737
▁ikisi	-5738
▁Yapon	-5739
▁əsəri	-5740
▁güclən	-5741
▁nəzarəti	-5742
▁Səd	-5743
▁iradə	-5744
▁layihə	-5745
▁qarşısının	-5746
ucu	-5747
üddətli	-5748
▁manata	-5749
▁nəticəsi	-5750
▁yəh	-5751
▁daimi	-5752
▁Deməli	-5753
▁suallar	-5754
▁perspektiv	-5755
ayış	-5756
▁Kəlb	-5757
diyin	-5758
▁cil	-5759
▁rejimi	-5760
usuna	-5761
▁mətn	-5762
▁əlaqələrin	-5763
mis	-5764
adşah	-5765
▁hadisələr	-5766
▁dolları	-5767
üdrət	-5768
▁mağaz	-5769
▁fəaliyyətinə	-5770
lədi	-5771
▁ehtir	-5772
sından	-5773
▁Hansı	-5774
▁təşv	-5775
MA	-5776
▁ml	-5777
▁avadan	-5778
▁faktiki	-5779
qul	-5780
▁mərkəzində	-5781
202	-5782
liklər	-5783
▁medal	-5784
anların	-5785
tom	-5786
▁köl	-5787
▁göstərici	-5788
▁Qəb	-5789
▁yana	-5790
şrut	-5791
buki	-5792
▁əhval	-5793
aydı	-5794
▁kitabının	-5795
▁kəsb	-5796
▁geyin	-5797
▁yerləşdiril	-5798
▁illərin	-5799
▁iste	-5800
▁tədbiri	-5801
▁almış	-5802
▁Xəlil	-5803
▁məndə	-5804
Bundan	-5805
dığımız	-5806
▁hüquqlarının	-5807
vin	-5808
enti	-5809
▁Nam	-5810
▁inam	-5811
▁yazıçı	-5812
▁üslub	-5813
▁Mülki	-5814
▁gözləy	-5815
▁hazırkı	-5816
▁300	-5817
▁zəlz	-5818
▁Tərtər	-5819
▁Ley	-5820
▁şa	-5821
▁minlərlə	-5822
▁acı	-5823
did	-5824
▁18-	-5825
▁pozulması	-5826
▁maksi	-5827
▁deyiləm	-5828
▁təp	-5829
Av	-5830
▁aparan	-5831
▁Suriya	-5832
▁danışır	-5833
▁vətəndaşları	-5834
▁qür	-5835
▁diş	-5836
▁çarp	-5837
▁olanlar	-5838
larımızı	-5839
▁buy	-5840
▁quraşdır	-5841
▁varmı	-5842
▁söndür	-5843
▁daşım	-5844
▁Xatırladaq	-5845
ağıyev	-5846
▁Qarabağın	-5847
▁başlanılıb	-5848
▁Dem	-5849
▁təqdirdə	-5850
▁dəyişikliklər	-5851
▁separat	-5852
▁qiymətli	-5853
▁Bildirilib	-5854
ly	-5855
▁Ümumiyyətlə	-5856
70	-5857
FA	-5858
▁şt	-5859
▁üns	-5860
▁Şəm	-5861
▁vəsiq	-5862
▁əsası	-5863
▁duman	-5864
▁vəziyyətə	-5865
▁mənş	-5866
▁valyut	-5867
elin	-5868
Ermənistan	-5869
öhbəti	-5870
üç	-5871
▁Sağ	-5872
▁həvəs	-5873
▁açıqlama	-5874
▁məzm	-5875
ristian	-5876
▁mot	-5877
▁sisteminin	-5878
vanda	-5879
▁Cəlil	-5880
▁qoca	-5881
▁w	-5882
ıncı	-5883
ətinə	-5884
ovanın	-5885
▁Pr	-5886
▁Hökumət	-5887
▁Komitəsi	-5888
akir	-5889
▁alq	-5890
▁Rəhim	-5891
▁yerini	-5892
▁şən	-5893
▁Havanın	-5894
▁bıçaq	-5895
örüş	-5896
▁Millət	-5897
▁eləsin	-5898
▁əhalisi	-5899
▁Ya	-5900
▁müqaviləsi	-5901
9.	-5902
▁vuruş	-5903
▁qut	-5904
ook	-5905
▁tük	-5906
▁atıb	-5907
▁bele	-5908
▁çörək	-5909
▁qadının	-5910
arda	-5911
ens	-5912
misən	-5913
▁Dost	-5914
▁Avstr	-5915
gən	-5916
▁göstəriş	-5917
ılma	-5918
kəs	-5919
▁məsələn	-5920
▁Top	-5921
▁narazı	-5922
▁Azərbaycanlı	-5923
▁diaspor	-5924
▁oldum	-5925
▁Onlardan	-5926
▁artıb	-5927
▁Nəs	-5928
iyyətli	-5929
lisə	-5930
mıram	-5931
▁eşq	-5932
yada	-5933
urun	-5934
▁Müş	-5935
▁neftin	-5936
adıq	-5937
ilərinin	-5938
ayi	-5939
▁qum	-5940
▁gürcü	-5941
▁mir	-5942
ğının	-5943
▁xəbəri	-5944
▁Belar	-5945
▁riayət	-5946
▁Dəniz	-5947
üter	-5948
▁Vəz	-5949
▁verməyə	-5950
sar	-5951
lass	-5952
▁Fir	-5953
▁park	-5954
▁işlərin	-5955
aqlı	-5956
▁saziş	-5957
▁başında	-5958
▁səsləndir	-5959
▁gömrük	-5960
▁hələlik	-5961
▁yetiril	-5962
asıb	-5963
mağın	-5964
▁aparılması	-5965
▁professor	-5966
▁bizdə	-5967
HN	-5968
təş	-5969
▁Birliyinin	-5970
▁incəsən	-5971
▁İmtahan	-5972
▁etdirən	-5973
onda	-5974
▁avqustun	-5975
asət	-5976
▁tar	-5977
▁diqqətə	-5978
▁işdən	-5979
▁könüllü	-5980
▁marşrut	-5981
▁2014-	-5982
▁fikirlər	-5983
dınca	-5984
aqn	-5985
ürdü	-5986
▁təhlükəsizliyi	-5987
▁nəfərə	-5988
▁ant	-5989
▁qadınlar	-5990
▁demə	-5991
▁qu	-5992
▁Doğru	-5993
▁uşağın	-5994
▁mübahisə	-5995
▁qərarına	-5996
▁koronavirusa	-5997
▁qoc	-5998
▁Tanrı	-5999
▁xadim	-6000
▁üzləş	-6001
▁salıb	-6002
▁oğlunun	-6003
▁14-	-6004
▁qraf	-6005
aqlar	-6006
▁yaşında	-6007
imət	-6008
ayevin	-6009
▁qızın	-6010
▁sayılır	-6011
▁Orada	-6012
əcəm	-6013
▁sevinc	-6014
▁versin	-6015
▁təmas	-6016
▁Ordusunun	-6017
▁Məktəb	-6018
▁32	-6019
Prezident	-6020
\”,	-6021
Ağ	-6022
▁şirin	-6023
▁əsərləri	-6024
:1	-6025
▁uğurlar	-6026
unc	-6027
onald	-6028
ilərək	-6029
▁regionda	-6030
▁19-	-6031
▁səc	-6032
▁xas	-6033
▁şirkəti	-6034
ifə	-6035
▁mik	-6036
▁davranış	-6037
▁yaxşıdır	-6038
▁Ber	-6039
▁Faktla	-6040
▁Məcəl	-6041
ətlər	-6042
eyə	-6043
▁anlaş	-6044
▁zəm	-6045
▁21-	-6046
sınlar	-6047
▁trans	-6048
▁dəhşətli	-6049
lanma	-6050
▁məskun	-6051
▁göndəril	-6052
▁İnzibati	-6053
qərb	-6054
▁Kat	-6055
▁faydalı	-6056
▁zeh	-6057
▁ut	-6058
azil	-6059
▁qaranlıq	-6060
▁qəzeti	-6061
▁lən	-6062
▁razılıq	-6063
▁icrası	-6064
▁qiymətləndiril	-6065
asiyanın	-6066
idən	-6067
ademik	-6068
▁çıxart	-6069
▁oradan	-6070
▁Qoş	-6071
▁Hallar	-6072
▁sifariş	-6073
ahil	-6074
mek	-6075
▁oxucu	-6076
▁Yas	-6077
▁baxır	-6078
Dövlət	-6079
▁ürəyi	-6080
▁qurğu	-6081
▁seçim	-6082
▁gördük	-6083
▁aiddir	-6084
▁Oyun	-6085
▁oxumaq	-6086
▁qəribə	-6087
rif	-6088
▁təşəbbüsü	-6089
adam	-6090
aba	-6091
lerin	-6092
▁gəlmək	-6093
▁başlayan	-6094
alic	-6095
▁işdə	-6096
▁institut	-6097
Yeni	-6098
əndis	-6099
▁Anar	-6100
▁döş	-6101
baycan	-6102
14	-6103
▁tit	-6104
▁Görüş	-6105
▁əxlaq	-6106
▁Ham	-6107
▁Adam	-6108
▁olunurdu	-6109
▁imkanları	-6110
kal	-6111
▁45	-6112
▁kassasiya	-6113
▁əhalisinin	-6114
▁işçi	-6115
itorinq	-6116
esin	-6117
▁cəmiyyətin	-6118
ülf	-6119
mişdim	-6120
▁partiya	-6121
▁XV	-6122
▁fer	-6123
▁Xəstəxan	-6124
▁13-	-6125
▁mövsüm	-6126
mas	-6127
▁dəfn	-6128
▁işləy	-6129
▁seçilib	-6130
▁mək	-6131
▁fond	-6132
▁gələndə	-6133
işət	-6134
▁Ermənistanda	-6135
oca	-6136
▁məncə	-6137
▁başlanğı	-6138
▁yerindən	-6139
▁Aleksan	-6140
▁nəticədə	-6141
▁Ot	-6142
▁Əmin	-6143
lərimizi	-6144
eyt	-6145
▁əməkdaşlarının	-6146
▁orq	-6147
▁müddətinə	-6148
lıqlar	-6149
▁rəhmət	-6150
acağam	-6151
▁aparıb	-6152
▁aman	-6153
▁sevg	-6154
▁topl	-6155
▁evinə	-6156
▁məbləğində	-6157
▁çıxarıb	-6158
▁2,	-6159
mişlər	-6160
▁yun	-6161
▁Pal	-6162
▁gah	-6163
▁Bar	-6164
▁naminə	-6165
▁yaxşılaşdır	-6166
▁bilmədi	-6167
perator	-6168
▁36	-6169
▁sözünü	-6170
amə	-6171
hi	-6172
▁Araz	-6173
▁Britaniya	-6174
▁kod	-6175
lo	-6176
əmət	-6177
▁bina	-6178
▁üzə	-6179
çının	-6180
▁kont	-6181
tək	-6182
▁Zəngəz	-6183
ıdır	-6184
▁Yəqin	-6185
▁sm	-6186
El	-6187
▁cari	-6188
▁harada	-6189
▁kub	-6190
▁Zeynal	-6191
alinin	-6192
▁uşağı	-6193
▁nifrət	-6194
▁Seç	-6195
▁qorxu	-6196
▁qəbulu	-6197
▁Partiyasının	-6198
▁anlayış	-6199
aktiki	-6200
▁Respublikasında	-6201
▁bəyanat	-6202
▁boyn	-6203
mrə	-6204
▁danışmaq	-6205
zadənin	-6206
▁özlərini	-6207
▁Xidmətindən	-6208
AY	-6209
▁17-	-6210
▁olunmasına	-6211
▁Vil	-6212
▁gətirir	-6213
▁qorumaq	-6214
▁dəstə	-6215
▁yağmur	-6216
▁Vaqif	-6217
▁rest	-6218
▁idarəetmə	-6219
▁nəyə	-6220
▁baxıb	-6221
▁müəllifi	-6222
▁idxal	-6223
▁yuxu	-6224
▁qəm	-6225
▁Nəqliyyat	-6226
layn	-6227
▁ənənəvi	-6228
▁23-	-6229
▁Teh	-6230
aqları	-6231
▁aparmaq	-6232
▁məlumatda	-6233
▁xanın	-6234
işik	-6235
▁sürüc	-6236
!”	-6237
▁Konstitus	-6238
▁Qanun	-6239
iyyətin	-6240
partam	-6241
məliyyat	-6242
▁xəbərinə	-6243
▁yaradan	-6244
alılar	-6245
▁mobil	-6246
▁eliy	-6247
ork	-6248
imizi	-6249
▁bəyən	-6250
▁kur	-6251
▁1992-	-6252
▁Məsələ	-6253
▁bilməyən	-6254
eyhun	-6255
▁təhdid	-6256
▁yağacağı	-6257
▁əməkdaşı	-6258
▁çatdırıb	-6259
▁sözün	-6260
▁dağlıq	-6261
▁KİV	-6262
▁öt	-6263
▁Fət	-6264
▁azadlıqdan	-6265
Am	-6266
▁tələbə	-6267
▁gözü	-6268
▁dram	-6269
▁qaçqın	-6270
▁yaranır	-6271
▁Can	-6272
▁mədəniyyəti	-6273
ES	-6274
▁gənclər	-6275
▁Şıx	-6276
oyun	-6277
▁potensial	-6278
▁mənsub	-6279
▁cəs	-6280
stana	-6281
▁Səhər	-6282
▁ərizə	-6283
▁verirdi	-6284
▁yaranıb	-6285
UN	-6286
▁Koll	-6287
▁dövlətlərin	-6288
▁sui	-6289
▁Təq	-6290
aşa	-6291
▁nit	-6292
apa	-6293
▁təbəq	-6294
dun	-6295
▁intih	-6296
▁yanlış	-6297
TA	-6298
▁maddələri	-6299
▁yatır	-6300
▁Ek	-6301
▁yolunun	-6302
▁istifadəyə	-6303
▁xalqına	-6304
va	-6305
qor	-6306
▁Ankar	-6307
▁təhsili	-6308
▁paytaxtı	-6309
ivil	-6310
▁qəzəb	-6311
▁tərəflər	-6312
ental	-6313
▁tr	-6314
▁direktor	-6315
avi	-6316
▁müalic	-6317
▁şərti	-6318
▁əsaslandır	-6319
▁təltif	-6320
▁Komandan	-6321
▁Müt	-6322
ele	-6323
▁təqsirləndirilən	-6324
▁istəyirdi	-6325
▁səth	-6326
▁Özü	-6327
maması	-6328
▁zol	-6329
▁bilmək	-6330
yana	-6331
▁Ədə	-6332
▁müdaxilə	-6333
ministr	-6334
▁Odur	-6335
▁aktyor	-6336
▁quruc	-6337
▁maliyyələş	-6338
▁civə	-6339
▁gələ	-6340
▁işinə	-6341
▁allah	-6342
▁haqlı	-6343
qram	-6344
▁kan	-6345
kəl	-6346
▁halları	-6347
▁33	-6348
lov	-6349
▁görüşdə	-6350
III	-6351
quz	-6352
▁rüs	-6353
dəy	-6354
.(	-6355
mişik	-6356
▁fəlak	-6357
▁çöl	-6358
▁Hərək	-6359
▁bulud	-6360
▁Prezidentin	-6361
▁gəlmə	-6362
▁Avropada	-6363
▁Bayramov	-6364
▁Krem	-6365
▁İy	-6366
▁almağa	-6367
▁PDF	-6368
▁olmasın	-6369
▁Rz	-6370
▁süni	-6371
▁xatırla	-6372
▁müqavimət	-6373
▁status	-6374
▁görülən	-6375
▁pozunt	-6376
▁Elçin	-6377
▁edim	-6378
▁açılış	-6379
▁etim	-6380
▁üzünü	-6381
▁mənzər	-6382
▁Arif	-6383
▁əzab	-6384
sid	-6385
Türkiyə	-6386
əcəyəm	-6387
▁120	-6388
▁evində	-6389
▁24-	-6390
▁alda	-6391
▁ağl	-6392
▁Azer	-6393
▁sahə	-6394
▁qüvvə	-6395
▁redakt	-6396
▁MT	-6397
▁oxuyur	-6398
yaslı	-6399
▁nor	-6400
▁vəd	-6401
▁avi	-6402
▁belədir	-6403
öhrət	-6404
▁yerdən	-6405
▁şeylər	-6406
▁Məlumata	-6407
stanı	-6408
▁problemləri	-6409
atiya	-6410
▁xərit	-6411
ƏS	-6412
▁məhkəməsinin	-6413
▁kob	-6414
▁ASC	-6415
▁magist	-6416
aşin	-6417
▁seçk	-6418
▁Mübar	-6419
▁önəmli	-6420
rak	-6421
▁partlayış	-6422
▁dis	-6423
▁oxuyan	-6424
▁sağalıb	-6425
▁Eh	-6426
▁polkovnik	-6427
▁əlif	-6428
eys	-6429
▁16-	-6430
▁meşə	-6431
▁bölmə	-6432
ınca	-6433
▁müşav	-6434
landiya	-6435
▁75	-6436
▁günün	-6437
İl	-6438
▁imtahanı	-6439
▁qrupunun	-6440
▁iqlim	-6441
▁zar	-6442
İY	-6443
▁cəza	-6444
▁olublar	-6445
▁göndərilib	-6446
▁Ötən	-6447
▁yaratdığı	-6448
Azərbaycanın	-6449
adar	-6450
itter	-6451
ikmət	-6452
▁yub	-6453
▁özündən	-6454
▁olunanların	-6455
▁26-	-6456
sində	-6457
▁şəhərdə	-6458
▁radə	-6459
▁əsassız	-6460
▁səkkiz	-6461
▁fransız	-6462
▁mövqeyi	-6463
▁istirahət	-6464
qal	-6465
▁ötr	-6466
▁dilinin	-6467
▁Fondunun	-6468
▁yuxarıda	-6469
▁ili	-6470
▁Eldar	-6471
▁arbit	-6472
vanın	-6473
▁Kanal	-6474
▁bölgəsində	-6475
▁he	-6476
▁verərək	-6477
▁şəbəkələrdə	-6478
▁27-	-6479
▁qaçır	-6480
▁prosesində	-6481
▁bugün	-6482
əmə	-6483
▁Ceyhun	-6484
▁yazılı	-6485
iləşdir	-6486
▁reklam	-6487
▁çətindir	-6488
▁məlumatları	-6489
Ab	-6490
▁dəyişdir	-6491
ıldığını	-6492
▁xəz	-6493
landı	-6494
mağ	-6495
▁müavin	-6496
ətləri	-6497
▁mindən	-6498
▁görülüb	-6499
övr	-6500
▁büdcə	-6501
▁lazımdı	-6502
▁ehtiyacı	-6503
▁cəmiyyəti	-6504
▁olunmalıdır	-6505
han	-6506
▁proqramı	-6507
aret	-6508
ayih	-6509
▁çax	-6510
əcəkdir	-6511
ric	-6512
▁ötrü	-6513
▁məhdudiyyət	-6514
izmi	-6515
▁Böl	-6516
lassik	-6517
▁cər	-6518
port	-6519
▁qarşılan	-6520
tida	-6521
▁səfəri	-6522
▁etdirmək	-6523
▁mənaf	-6524
▁yazdığı	-6525
▁bənzər	-6526
▁hadisəsi	-6527
▁kampan	-6528
24	-6529
▁İqtisadi	-6530
▁çatış	-6531
▁Xüsus	-6532
verdiyev	-6533
▁verg	-6534
▁yas	-6535
▁kəşfiyyat	-6536
mumi	-6537
▁göstərdiyi	-6538
▁Apar	-6539
▁alç	-6540
▁nəş	-6541
▁güzəşt	-6542
səm	-6543
▁Bəyan	-6544
▁Kiyev	-6545
▁zavod	-6546
▁münaqişə	-6547
▁Pir	-6548
▁nailiyyət	-6549
▁Nəh	-6550
dırlar	-6551
▁Tif	-6552
▁yal	-6553
▁Uzun	-6554
▁qoyur	-6555
▁xəyal	-6556
mik	-6557
▁nəfəs	-6558
▁yağmursuz	-6559
▁üzərindən	-6560
▁demokratik	-6561
▁cüt	-6562
icdan	-6563
▁kitablar	-6564
siv	-6565
▁maddəsinin	-6566
▁Apellyasiya	-6567
▁şim	-6568
▁mərhələdə	-6569
▁Bəzən	-6570
▁uşaqları	-6571
▁məhdudlaşdır	-6572
▁İç	-6573
▁Vüqar	-6574
tiq	-6575
▁oluna	-6576
▁şüş	-6577
▁etdiyimiz	-6578
▁Her	-6579
xxxx	-6580
▁törədil	-6581
malıyıq	-6582
▁irəlil	-6583
itik	-6584
▁Binə	-6585
▁Con	-6586
zi	-6587
əffəq	-6588
▁temperatur	-6589
ülb	-6590
liyyə	-6591
əkkil	-6592
▁vəziyyətin	-6593
201	-6594
mırdı	-6595
▁nəhayət	-6596
out	-6597
▁səviyyəsi	-6598
▁Yuxarı	-6599
kspert	-6600
giz	-6601
acir	-6602
▁parlaq	-6603
taj	-6604
dünya	-6605
▁kobud	-6606
▁adlanan	-6607
▁münasibəti	-6608
▁günlər	-6609
▁münaqişənin	-6610
▁radələrində	-6611
▁yurd	-6612
▁şübhə	-6613
▁cəzalandır	-6614
▁hallar	-6615
▁Respublika	-6616
▁növü	-6617
ebook	-6618
▁obyektiv	-6619
▁əvvəllərində	-6620
▁ayı	-6621
ral	-6622
luğa	-6623
dumuz	-6624
▁qüvvəyə	-6625
▁bölmələri	-6626
▁müharibəsində	-6627
▁Elxan	-6628
▁səfiri	-6629
old	-6630
▁kənara	-6631
▁təzyiqi	-6632
Ey	-6633
▁igid	-6634
▁qanuna	-6635
▁bayramı	-6636
▁Aİ	-6637
▁Nəsimi	-6638
▁Te	-6639
▁düy	-6640
mışdılar	-6641
▁yerləşdir	-6642
gey	-6643
sim	-6644
ment	-6645
▁hamısını	-6646
▁hazırlanması	-6647
▁həyət	-6648
▁sit	-6649
▁hasil	-6650
azi	-6651
▁anda	-6652
▁Bəy	-6653
▁İdarəsi	-6654
▁edəcəklər	-6655
▁artist	-6656
▁düzəlt	-6657
▁gəlmir	-6658
▁Təşkilatının	-6659
▁ardınca	-6660
▁Təbriz	-6661
▁işini	-6662
▁Peyğəmbər	-6663
maların	-6664
▁Əfqanı	-6665
▁vermişdir	-6666
osu	-6667
dıqca	-6668
▁idim	-6669
▁kos	-6670
▁oynayır	-6671
▁2023-	-6672
ənni	-6673
▁özümü	-6674
▁tapmaq	-6675
nək	-6676
▁Qazax	-6677
▁dilini	-6678
▁etməyib	-6679
pul	-6680
▁ban	-6681
▁barış	-6682
▁sayının	-6683
sel	-6684
Məmməd	-6685
▁adları	-6686
▁nəhəng	-6687
▁seh	-6688
▁səm	-6689
▁Belarus	-6690
ilan	-6691
▁məhsulları	-6692
▁arada	-6693
▁gündəlik	-6694
▁vasitələri	-6695
▁Kəlbəcər	-6696
▁boyunca	-6697
▁hissəsinin	-6698
▁evdən	-6699
▁geyim	-6700
▁pri	-6701
▁müayinə	-6702
ovla	-6703
▁avro	-6704
▁əhəmiyyəti	-6705
▁ha	-6706
▁Kabinetinin	-6707
meteor	-6708
▁İtaliya	-6709
▁qəsəbəsində	-6710
▁Qızıl	-6711
▁XIX	-6712
sev	-6713
təz	-6714
▁Azərbaycandan	-6715
▁tələs	-6716
▁daşıyan	-6717
▁əlaqəli	-6718
▁Tey	-6719
▁gülüm	-6720
mısınız	-6721
▁Aleksandr	-6722
▁Eş	-6723
▁Moskvada	-6724
▁tərbiyə	-6725
▁sənədlər	-6726
▁dediyi	-6727
siteti	-6728
▁sadiq	-6729
azan	-6730
▁Gen	-6731
▁sığın	-6732
▁göstərilir	-6733
eput	-6734
əqqi	-6735
edaq	-6736
▁simv	-6737
▁mənbə	-6738
▁burdan	-6739
▁Et	-6740
▁yaralanıb	-6741
▁çek	-6742
▁işğalçı	-6743
▁özümüz	-6744
▁Mik	-6745
▁sük	-6746
▁məkan	-6747
▁suyun	-6748
▁müvəffəq	-6749
ləşib	-6750
▁verilmişdir	-6751
Məh	-6752
▁Aslan	-6753
▁Röv	-6754
▁Tibbi	-6755
ılsın	-6756
▁dialoq	-6757
▁görüşü	-6758
▁vasitələrinin	-6759
▁açıqlanıb	-6760
▁instansiyası	-6761
▁ibn	-6762
▁istef	-6763
▁ərazisinə	-6764
▁%	-6765
qat	-6766
avənd	-6767
▁qoyun	-6768
amik	-6769
▁çıxmaq	-6770
▁əsəcək	-6771
▁İqtisadiyyat	-6772
ələk	-6773
iliyə	-6774
▁bərpası	-6775
▁nəzərdən	-6776
▁oyan	-6777
▁artması	-6778
xar	-6779
▁adamların	-6780
▁Aşağı	-6781
ulmuş	-6782
▁kateqor	-6783
ilisi	-6784
▁34	-6785
▁harda	-6786
gəndər	-6787
▁səp	-6788
ou	-6789
dəni	-6790
ərə	-6791
▁Hol	-6792
acebook	-6793
▁Aydın	-6794
▁qarşıl	-6795
▁bildiriblər	-6796
bil	-6797
▁bilməyib	-6798
▁SSR	-6799
▁Şərqi	-6800
Daha	-6801
içik	-6802
▁Araşdır	-6803
▁eşid	-6804
▁İdman	-6805
▁keş	-6806
▁ara	-6807
▁Sahib	-6808
ube	-6809
bəyli	-6810
▁duran	-6811
▁işarə	-6812
cadan	-6813
▁Nəzər	-6814
▁lab	-6815
▁biləcəyi	-6816
▁bəziləri	-6817
▁müğ	-6818
▁çırp	-6819
199	-6820
▁dövrün	-6821
▁bölün	-6822
ləkbər	-6823
▁işinin	-6824
▁cəsarət	-6825
▁inkişafında	-6826
▁qabağında	-6827
lüm	-6828
▁Bilir	-6829
▁fikirləri	-6830
▁150	-6831
▁Lond	-6832
▁saxlanılan	-6833
▁Şirk	-6834
skinin	-6835
▁Operativ	-6836
▁şeydən	-6837
▁em	-6838
▁cib	-6839
▁yaradılmış	-6840
▁amerik	-6841
▁ləy	-6842
▁For	-6843
▁Nəz	-6844
▁xəl	-6845
▁çəkdi	-6846
▁qanunvericilik	-6847
▁öp	-6848
▁Qon	-6849
lunun	-6850
▁ərazisi	-6851
▁məsələnin	-6852
▁koman	-6853
▁həz	-6854
▁alınan	-6855
▁fakül	-6856
▁qəsdən	-6857
▁Ermən	-6858
▁Qazaxıstan	-6859
▁Üç	-6860
▁deyilən	-6861
▁vətəndaşlar	-6862
kəndi	-6863
▁metod	-6864
▁çalışıb	-6865
▁heyətinin	-6866
▁mühafiz	-6867
▁rəqab	-6868
oya	-6869
▁forması	-6870
▁indiyədək	-6871
▁Yoxsa	-6872
▁rolunu	-6873
▁Dəmir	-6874
▁hərtərəfli	-6875
▁süd	-6876
▁yolunu	-6877
▁münasibətlərinin	-6878
▁Hit	-6879
▁güllə	-6880
▁ord	-6881
▁çatdırılıb	-6882
▁28-	-6883
▁22-	-6884
▁başlıca	-6885
▁yaradıb	-6886
ƏM	-6887
ımızda	-6888
▁həssas	-6889
▁37	-6890
▁sök	-6891
dılması	-6892
▁keçirən	-6893
▁qaldırılması	-6894
ps	-6895
▁nişan	-6896
▁töhfə	-6897
nur	-6898
qədi	-6899
▁yoxlan	-6900
▁əlinə	-6901
▁4.	-6902
▁avtomob	-6903
▁Don	-6904
ws	-6905
adığı	-6906
▁ayağa	-6907
▁edəcəyik	-6908
ləşdirilmiş	-6909
▁qüvvələr	-6910
▁Bor	-6911
allar	-6912
▁gizir	-6913
▁xidmətləri	-6914
▁şəxsən	-6915
▁verildi	-6916
▁leytenant	-6917
200	-6918
▁çıxmış	-6919
iəti	-6920
▁satı	-6921
▁edənlər	-6922
▁Agentliyinin	-6923
▁əmi	-6924
▁Qüvvələri	-6925
▁Alban	-6926
▁telek	-6927
▁onlayn	-6928
▁diqqəti	-6929
İK	-6930
▁Maraq	-6931
▁tərp	-6932
▁yaxından	-6933
35	-6934
cağı	-6935
laşdırma	-6936
rant	-6937
▁Ulu	-6938
▁oxşar	-6939
şevik	-6940
ülük	-6941
▁Şeyx	-6942
əcəyinə	-6943
▁İngilis	-6944
▁başladılar	-6945
▁məktəbi	-6946
anət	-6947
▁Nərimanov	-6948
▁katib	-6949
▁saxta	-6950
▁qismən	-6951
▁yerləri	-6952
▁taxt	-6953
▁ləyaq	-6954
▁es	-6955
üşvət	-6956
▁iddiaçının	-6957
iyyətə	-6958
▁tələbi	-6959
▁Xaç	-6960
▁Özb	-6961
▁hökumətinin	-6962
▁sorğu	-6963
axtarış	-6964
▁olsaydı	-6965
▁süf	-6966
▁kəsə	-6967
end	-6968
ydı	-6969
▁göl	-6970
▁Bərdə	-6971
məlidirlər	-6972
liq	-6973
▁arvadı	-6974
▁bilmirdi	-6975
irov	-6976
▁dağlarda	-6977
▁sox	-6978
▁məclis	-6979
▁pensiya	-6980
▁diqqətlə	-6981
▁işlərinin	-6982
▁etsə	-6983
▁nağıl	-6984
▁2008-	-6985
oritet	-6986
▁sivil	-6987
▁əbədi	-6988
nov	-6989
▁kəsin	-6990
▁tutdu	-6991
▁fövqəladə	-6992
▁Cavid	-6993
▁məhəl	-6994
Report	-6995
▁fəaliyyətə	-6996
▁ləz	-6997
▁təcrübə	-6998
kam	-6999
yib	-7000
▁təyyarə	-7001
▁vurğulanıb	-7002
▁buz	-7003
▁işlət	-7004
▁qüdrət	-7005
liyəm	-7006
qun	-7007
▁yaddaş	-7008
▁Vətəndaş	-7009
Bunun	-7010
▁düşünc	-7011
▁rif	-7012
▁suyu	-7013
▁üzvlərinin	-7014
▁hərəkətləri	-7015
▁durub	-7016
▁poez	-7017
▁İranda	-7018
▁kollektiv	-7019
▁uzadı	-7020
ləşmə	-7021
▁Tovuz	-7022
eo	-7023
▁minim	-7024
▁Zəngəzur	-7025
ğına	-7026
▁şad	-7027
▁arxa	-7028
▁cinayətkar	-7029
▁yaşına	-7030
amb	-7031
▁məsələdə	-7032
▁Qüvvələrinin	-7033
.\”	-7034
karı	-7035
▁dəstəklə	-7036
▁Mart	-7037
▁Cənab	-7038
▁Qərbi	-7039
▁yolları	-7040
.)	-7041
▁Ban	-7042
▁ölkələrində	-7043
▁38	-7044
▁ağa	-7045
▁ərazisindəki	-7046
aqa	-7047
lini	-7048
▁dolan	-7049
▁yaradılan	-7050
Əs	-7051
aqdan	-7052
▁saldı	-7053
arıstan	-7054
▁bahalaş	-7055
▁salmaq	-7056
▁mexanizm	-7057
ılar	-7058
imkan	-7059
▁sess	-7060
▁köməyi	-7061
▁getdikcə	-7062
▁olmaması	-7063
▁Cab	-7064
▁mühəndis	-7065
rü	-7066
▁Mark	-7067
▁kəsil	-7068
▁rəv	-7069
mus	-7070
azar	-7071
▁adətən	-7072
▁protokol	-7073
▁təsərrüfat	-7074
▁həmsəd	-7075
▁bilmədim	-7076
▁alış	-7077
▁Bağır	-7078
▁foto	-7079
▁Sabah	-7080
▁ailəsi	-7081
▁ağıllı	-7082
▁Zelen	-7083
ternativ	-7084
▁açılıb	-7085
estr	-7086
▁xristian	-7087
▁Qafqazda	-7088
▁illərində	-7089
dub	-7090
▁İstintaq	-7091
▁Fil	-7092
▁inteq	-7093
▁Əm	-7094
▁Agentliyi	-7095
tidai	-7096
dıqlarını	-7097
▁hekt	-7098
▁Xüsusi	-7099
▁müəllimi	-7100
▁III	-7101
▁bilməy	-7102
miq	-7103
▁azərbaycanlıların	-7104
▁cih	-7105
▁Seyid	-7106
ıra	-7107
əffaf	-7108
əndən	-7109
▁həmkar	-7110
▁çağırıb	-7111
▁bağlam	-7112
kir	-7113
▁rəqib	-7114
acağına	-7115
▁açılması	-7116
▁Met	-7117
▁qəd	-7118
▁fikrini	-7119
▁fürs	-7120
çt	-7121
▁xəyan	-7122
▁Cahan	-7123
▁verirlər	-7124
▁lis	-7125
lığından	-7126
▁pap	-7127
▁görəndə	-7128
▁hak	-7129
litoloq	-7130
▁ölkədən	-7131
▁Qap	-7132
abitə	-7133
▁oynam	-7134
▁istəyirlər	-7135
sif	-7136
▁nəğ	-7137
▁verdim	-7138
▁qalacaq	-7139
▁həyəcan	-7140
23	-7141
atar	-7142
▁nümunələri	-7143
▁ölçü	-7144
akistan	-7145
▁etibarlı	-7146
ME	-7147
lantı	-7148
təşəm	-7149
▁sonu	-7150
▁İlkin	-7151
▁ör	-7152
▁bak	-7153
▁Xəbər	-7154
ərli	-7155
▁Bol	-7156
▁şəh	-7157
▁zəmin	-7158
▁İttifaqının	-7159
ğan	-7160
lanaraq	-7161
▁səhiyyə	-7162
▁rayonlarda	-7163
əmadi	-7164
▁öhdəlik	-7165
şərq	-7166
▁şir	-7167
ellekt	-7168
▁həs	-7169
▁təşviq	-7170
▁dənə	-7171
▁konfrans	-7172
usunun	-7173
ula	-7174
▁bəst	-7175
▁iştirakçıları	-7176
mişdilər	-7177
▁görüşüb	-7178
bin	-7179
▁bomb	-7180
▁final	-7181
ləsi	-7182
▁dilə	-7183
qo	-7184
▁Şair	-7185
ağından	-7186
▁Şimal	-7187
▁görmür	-7188
▁Arx	-7189
▁Əbu	-7190
▁özünüz	-7191
▁bilinən	-7192
▁gecik	-7193
▁yada	-7194
▁bilirdi	-7195
▁edilsin	-7196
▁sahələri	-7197
▁gət	-7198
▁birdə	-7199
▁hadisələri	-7200
▁şəhərinə	-7201
▁qəp	-7202
▁Məcəllənin	-7203
▁Sen	-7204
▁Günü	-7205
▁sərvət	-7206
▁əfsan	-7207
▁olarkən	-7208
danın	-7209
qanuni	-7210
məliyik	-7211
▁çim	-7212
▁vermişdi	-7213
▁Ağayev	-7214
▁verin	-7215
▁verər	-7216
▁Tayyib	-7217
▁azərbaycan	-7218
▁Quba	-7219
▁xidmətinin	-7220
▁ayrıca	-7221
▁Mey	-7222
▁yoluxan	-7223
▁yazılmış	-7224
üfəng	-7225
▁Halbuki	-7226
▁rəngli	-7227
▁üzr	-7228
▁bəşər	-7229
▁yaman	-7230
▁nikah	-7231
liklərdə	-7232
▁İz	-7233
▁lin	-7234
lıqları	-7235
▁kompüter	-7236
▁şid	-7237
qər	-7238
▁verməsi	-7239
▁havanın	-7240
abı	-7241
▁Ast	-7242
▁Xoş	-7243
▁folk	-7244
▁bişir	-7245
▁oynay	-7246
▁Liv	-7247
▁dəyişir	-7248
üntü	-7249
ubern	-7250
▁sayında	-7251
▁tikintisi	-7252
▁kils	-7253
luğunu	-7254
laşdırmaq	-7255
▁Oğuz	-7256
▁müdafiəsi	-7257
ƏK	-7258
inizi	-7259
▁Xocavənd	-7260
▁görüm	-7261
▁fonunda	-7262
▁görürük	-7263
▁toz	-7264
▁Allaha	-7265
▁Üstəlik	-7266
▁qarşıdur	-7267
Ay	-7268
▁qatar	-7269
▁məqsədlə	-7270
sağlığı	-7271
▁ittifaq	-7272
▁gəldikdə	-7273
▁Əhmədov	-7274
▁Kiçik	-7275
▁deməli	-7276
▁vicdan	-7277
▁danışan	-7278
▁Tez	-7279
▁yel	-7280
▁Tehran	-7281
▁76	-7282
mamaq	-7283
▁diy	-7284
witter	-7285
lana	-7286
▁Məncə	-7287
▁Proqram	-7288
▁İŞ	-7289
▁dəyişdiril	-7290
ons	-7291
▁dərəcəli	-7292
▁böhran	-7293
ılmasında	-7294
▁nəyi	-7295
▁apardığı	-7296
▁başlanıb	-7297
▁gəlmişdi	-7298
▁inandır	-7299
ləndirmək	-7300
▁verdiyini	-7301
▁mövqeyini	-7302
▁hardan	-7303
▁boğaz	-7304
▁olurlar	-7305
In	-7306
laşması	-7307
▁etməkdə	-7308
▁Yev	-7309
ulub	-7310
▁hakimiyyətə	-7311
▁ərəf	-7312
▁iqt	-7313
▁fas	-7314
▁sahələrində	-7315
▁Nar	-7316
▁Kən	-7317
▁gəlincə	-7318
▁doğrudan	-7319
▁edilmişdi	-7320
▁sürətli	-7321
astik	-7322
▁Təəssüf	-7323
▁kəmər	-7324
▁azdır	-7325
▁məktəbin	-7326
asiyalar	-7327
▁dövlətlər	-7328
əhərrəm	-7329
▁Ko	-7330
▁maşını	-7331
iley	-7332
▁həmrəy	-7333
▁qaydaları	-7334
▁müəssisələrində	-7335
▁istədi	-7336
▁ədəbiyyatı	-7337
metr	-7338
▁alma	-7339
▁nömrə	-7340
▁mənası	-7341
▁gözlərini	-7342
▁yumur	-7343
▁təqa	-7344
▁nümunə	-7345
▁pilot	-7346
▁bağlay	-7347
▁siyasətinin	-7348
laşmış	-7349
▁Tahir	-7350
▁Binəqədi	-7351
▁çıxışı	-7352
▁İsmayılov	-7353
▁zəlzələ	-7354
▁dəx	-7355
iller	-7356
▁qoymaq	-7357
▁İsrailin	-7358
▁Burda	-7359
sər	-7360
▁hekay	-7361
▁utan	-7362
▁fakült	-7363
▁Fəl	-7364
eler	-7365
▁yazırdı	-7366
▁Ələkbər	-7367
▁bilmərəm	-7368
▁qadınların	-7369
▁şəraitinin	-7370
▁start	-7371
▁kişilər	-7372
sızlıq	-7373
▁yazmaq	-7374
▁birlik	-7375
▁döyüşçü	-7376
▁məzun	-7377
▁XX	-7378
ider	-7379
▁köməkçisi	-7380
▁ərazisindən	-7381
28	-7382
▁1918-	-7383
▁Sərəncam	-7384
”-	-7385
▁çevrilib	-7386
tay	-7387
ımdan	-7388
▁misal	-7389
▁qələ	-7390
▁jurnal	-7391
▁kanalda	-7392
▁futbolçu	-7393
▁Hindistan	-7394
▁Məhkəməsi	-7395
90	-7396
▁Federasiyasının	-7397
rip	-7398
▁peşə	-7399
▁analiz	-7400
▁Əla	-7401
▁Nəhayət	-7402
▁şahidi	-7403
sirləndirilən	-7404
ədəki	-7405
▁Vaxt	-7406
▁qurulması	-7407
öyüş	-7408
üncü	-7409
▁Ruh	-7410
▁3,	-7411
▁ziyalı	-7412
▁Nyu	-7413
▁han	-7414
▁Məlik	-7415
▁məras	-7416
üfi	-7417
▁müəssisələrinin	-7418
▁işlərinə	-7419
rus	-7420
▁doq	-7421
▁külli	-7422
▁məhsullarının	-7423
▁ədalətli	-7424
▁minə	-7425
▁mütəmadi	-7426
▁müharibənin	-7427
irsən	-7428
▁Sizi	-7429
▁sutka	-7430
İB	-7431
▁məsələlərin	-7432
▁kvad	-7433
▁1993-	-7434
▁sahəsinin	-7435
▁biraz	-7436
▁taley	-7437
▁ərazilərində	-7438
formasiya	-7439
▁ölkələrinin	-7440
▁müzakirələr	-7441
▁Misir	-7442
▁prinsipi	-7443
DU	-7444
tmaq	-7445
▁rəssam	-7446
▁Ümumi	-7447
▁öyrənmək	-7448
▁çəkilən	-7449
▁bez	-7450
▁qəza	-7451
▁nadir	-7452
▁nəfərdən	-7453
Baş	-7454
yəvi	-7455
▁rütub	-7456
▁çayı	-7457
orator	-7458
iyyətinə	-7459
eksi	-7460
sambl	-7461
▁vəzifəli	-7462
▁dib	-7463
▁binanın	-7464
▁məsələdir	-7465
▁Sol	-7466
▁Ter	-7467
▁etməy	-7468
21	-7469
▁bildirən	-7470
ribən	-7471
iter	-7472
▁Vəliyev	-7473
asitə	-7474
▁dilin	-7475
▁İlqar	-7476
▁bilirsən	-7477
▁tank	-7478
▁İrana	-7479
məm	-7480
idar	-7481
▁2013-	-7482
▁TV	-7483
▁qeydiyyatdan	-7484
▁Qədim	-7485
▁dinin	-7486
▁qürur	-7487
▁intihar	-7488
▁Hakimiyyətinin	-7489
▁zövq	-7490
▁edəcəyi	-7491
▁Nəc	-7492
▁soyqırımı	-7493
anş	-7494
▁əkin	-7495
▁sonuna	-7496
▁həyatın	-7497
▁psixoloji	-7498
▁tərəfində	-7499
OC	-7500
salar	-7501
▁adama	-7502
▁çıxarılması	-7503
▁şeyə	-7504
!!	-7505
▁Ma	-7506
▁tərif	-7507
▁Sərhəd	-7508
▁Şt	-7509
linik	-7510
ordin	-7511
üyü	-7512
▁İtal	-7513
▁Maliyyə	-7514
▁istəyib	-7515
▁şirkətinin	-7516
ese	-7517
▁Gənclər	-7518
▁Ziya	-7519
▁şəhərə	-7520
▁mərhələsində	-7521
acan	-7522
▁kamer	-7523
▁Qəhrəm	-7524
əsgər	-7525
▁insanı	-7526
▁Avropanın	-7527
qres	-7528
▁keçirdi	-7529
▁etməkdən	-7530
▁məbləği	-7531
gəç	-7532
▁nece	-7533
▁vərəs	-7534
▁təminat	-7535
▁Əhalinin	-7536
aşinqt	-7537
▁Ondan	-7538
dön	-7539
▁töhf	-7540
▁şəxsə	-7541
misiniz	-7542
▁cavabı	-7543
▁aralı	-7544
▁soydaş	-7545
▁əlaqəsi	-7546
▁Çıx	-7547
▁Kal	-7548
▁Fransanın	-7549
▁turş	-7550
▁Pay	-7551
▁yerin	-7552
te	-7553
▁Ümid	-7554
▁şəffaf	-7555
pp	-7556
▁qarışıq	-7557
▁İngiltərə	-7558
ABŞ	-7559
▁Nazirliyinə	-7560
▁profil	-7561
▁çəkmək	-7562
iyab	-7563
▁Dedi	-7564
aməlum	-7565
▁Tərəf	-7566
▁vəzifəsinə	-7567
luğunun	-7568
▁vaxtlarda	-7569
▁təməl	-7570
▁yaşan	-7571
▁əsəb	-7572
▁istərsə	-7573
▁gözlənilən	-7574
ürlər	-7575
▁məişət	-7576
get	-7577
▁şəbəkə	-7578
▁önündə	-7579
▁maksimum	-7580
▁bilməyəcək	-7581
afa	-7582
▁mikro	-7583
▁anbar	-7584
▁gedirdi	-7585
▁dollara	-7586
▁veriliş	-7587
▁sənədləri	-7588
▁naz	-7589
çiliyi	-7590
▁Musa	-7591
partament	-7592
▁Mat	-7593
Həmin	-7594
▁Qardaş	-7595
▁manatdan	-7596
▁qıs	-7597
▁Partiyası	-7598
▁Müəllim	-7599
▁qayıdan	-7600
▁Ağa	-7601
▁veriblər	-7602
▁ucun	-7603
▁girov	-7604
▁izahat	-7605
▁səndən	-7606
.201	-7607
dınız	-7608
izasiya	-7609
▁Cinayətlər	-7610
▁Teymur	-7611
▁indiyə	-7612
▁əvvəlcədən	-7613
▁hesabı	-7614
▁Fon	-7615
▁İnan	-7616
▁məktəbdə	-7617
▁Yazı	-7618
▁ağlı	-7619
▁Demokr	-7620
▁Xor	-7621
▁tutmuş	-7622
▁vaxtdan	-7623
larımı	-7624
▁xalqımızın	-7625
▁iyirmi	-7626
Təd	-7627
▁Pər	-7628
çusu	-7629
▁zamanlar	-7630
türk	-7631
▁qalın	-7632
▁bey	-7633
istika	-7634
▁monitorinq	-7635
22	-7636
▁ok	-7637
▁Demək	-7638
▁atam	-7639
▁halı	-7640
▁(3	-7641
mdar	-7642
▁işar	-7643
▁1990-	-7644
▁müqayisə	-7645
▁tarixinə	-7646
▁əlverişli	-7647
▁əvvəlində	-7648
▁gətirən	-7649
qulu	-7650
bud	-7651
▁Mustafa	-7652
▁yaraş	-7653
▁əraziyə	-7654
ələy	-7655
▁rəhbərləri	-7656
▁Nəsr	-7657
▁qalxıb	-7658
▁qalmışdı	-7659
▁qaydalarına	-7660
oranboy	-7661
▁Yanvar	-7662
DİN	-7663
▁400	-7664
▁Ədəbiyyat	-7665
▁Konven	-7666
▁Rövşən	-7667
lal	-7668
xah	-7669
▁çatdı	-7670
▁bütövlükdə	-7671
ecek	-7672
▁Ola	-7673
▁Qorx	-7674
▁çavuş	-7675
▁Gürcüstanın	-7676
▁Hidro	-7677
▁hadisələrin	-7678
▁Mad	-7679
estiv	-7680
▁həllini	-7681
▁vəzifəsində	-7682
▁yaralı	-7683
▁mit	-7684
dirib	-7685
▁Mustafayev	-7686
▁yiy	-7687
▁itkin	-7688
▁29-	-7689
▁*	-7690
▁Şəx	-7691
▁istedad	-7692
▁Bəh	-7693
lasın	-7694
▁nəticələr	-7695
▁pulsuz	-7696
▁Yük	-7697
▁vəsaiti	-7698
▁yaxınlarda	-7699
▁itirib	-7700
▁məlumdur	-7701
▁bütövlüyü	-7702
▁Kral	-7703
▁dilinə	-7704
Əl	-7705
▁zehmet	-7706
▁etməliyik	-7707
▁hüququnun	-7708
şad	-7709
▁zad	-7710
▁imza	-7711
▁klassik	-7712
ola	-7713
▁reaksiya	-7714
▁peyğəmbər	-7715
▁çatır	-7716
▁işlən	-7717
ruq	-7718
▁Region	-7719
▁mərasimi	-7720
▁etmişlər	-7721
▁münasibətdə	-7722
▁qüs	-7723
▁ayrılıb	-7724
▁layihələr	-7725
AP	-7726
▁Mün	-7727
▁etmişəm	-7728
▁padşah	-7729
▁güvən	-7730
hat	-7731
▁qəh	-7732
▁yayılan	-7733
▁etdirilməsi	-7734
ger	-7735
▁gəldiyi	-7736
▁Pros	-7737
vat	-7738
▁süz	-7739
ece	-7740
▁qanlı	-7741
▁cü	-7742
▁gizlət	-7743
▁olmuşam	-7744
kada	-7745
▁yoxlam	-7746
▁bacarıq	-7747
Öl	-7748
▁uzat	-7749
▁səciyy	-7750
gir	-7751
hər	-7752
▁Mer	-7753
▁qoyulub	-7754
▁gümüş	-7755
▁olduqları	-7756
▁qovuş	-7757
▁Söhbət	-7758
▁mənasında	-7759
▁respublika	-7760
məməsi	-7761
larımıza	-7762
▁günləri	-7763
lifi	-7764
▁möhtəşəm	-7765
▁qalıq	-7766
▁doqquz	-7767
▁Get	-7768
▁qəş	-7769
▁Görün	-7770
▁nəzəriyy	-7771
ıltı	-7772
▁Dan	-7773
sidir	-7774
▁2020	-7775
▁Xeyr	-7776
▁Roma	-7777
rək	-7778
▁investisiya	-7779
▁oke	-7780
▁çiy	-7781
imizdən	-7782
kür	-7783
▁cild	-7784
▁ölkəni	-7785
İran	-7786
ibil	-7787
▁İsgəndər	-7788
başına	-7789
▁azərbaycanlılar	-7790
çox	-7791
▁neç	-7792
▁tüfəng	-7793
▁əməliyyatı	-7794
▁dildə	-7795
▁düşünürəm	-7796
▁metro	-7797
▁mövzusunda	-7798
▁oxuyub	-7799
▁kvadrat	-7800
▁sədrinin	-7801
mışıq	-7802
▁yanaşma	-7803
▁Məm	-7804
▁içinə	-7805
▁keçin	-7806
imli	-7807
aa	-7808
▁iran	-7809
▁48	-7810
▁əcn	-7811
usunu	-7812
▁bəyin	-7813
cik	-7814
arıq	-7815
▁DİN	-7816
dövlət	-7817
▁hazırlanmış	-7818
▁Müst	-7819
▁tərəfinin	-7820
▁bilirlər	-7821
▁zirv	-7822
▁mln	-7823
▁Cavad	-7824
▁miqdarı	-7825
▁Ukraynada	-7826
▁kabin	-7827
▁çıxarılıb	-7828
kif	-7829
▁orqanı	-7830
▁zərərçəkmiş	-7831
ain	-7832
alarla	-7833
daşlıq	-7834
▁sistemində	-7835
ƏB	-7836
▁qılınc	-7837
▁dilindən	-7838
▁Ah	-7839
▁nəy	-7840
▁Ölkədə	-7841
▁hesabında	-7842
▁Goranboy	-7843
avasitə	-7844
▁hökumətin	-7845
▁prosesinin	-7846
ücum	-7847
▁bədbəxt	-7848
ee	-7849
▁keçmək	-7850
▁edilirdi	-7851
27	-7852
▁oğlum	-7853
▁balan	-7854
▁həcmi	-7855
darma	-7856
▁Həqiq	-7857
asiyaya	-7858
▁Xal	-7859
müşdü	-7860
▁motiv	-7861
▁Universiteti	-7862
məx	-7863
▁xx	-7864
izin	-7865
▁rüşvət	-7866
▁xaricdə	-7867
▁gətirdi	-7868
unçu	-7869
▁Molla	-7870
▁radio	-7871
Məlumata	-7872
isə	-7873
uğ	-7874
▁Oruc	-7875
▁mükaf	-7876
▁üzündə	-7877
▁Axşam	-7878
▁ile	-7879
▁oxumuş	-7880
yot	-7881
▁yazılıb	-7882
fil	-7883
▁tor	-7884
▁qanunla	-7885
Di	-7886
▁Mac	-7887
imizdə	-7888
biri	-7889
▁alternativ	-7890
gəçevir	-7891
▁küçəsində	-7892
ləşdirmək	-7893
▁xərcləri	-7894
▁yuy	-7895
▁hərf	-7896
▁aşkarlanıb	-7897
sosi	-7898
mışlar	-7899
▁Turizm	-7900
ena	-7901
▁maraqlıdır	-7902
raq	-7903
ster	-7904
ığın	-7905
▁səsini	-7906
masa	-7907
▁oğluna	-7908
▁başlanğıc	-7909
yad	-7910
dfi	-7911
▁aylarında	-7912
▁olunmasını	-7913
▁olduqlarını	-7914
AQ	-7915
LAR	-7916
▁tikint	-7917
▁hədiyyə	-7918
amin	-7919
▁hüc	-7920
▁səbəbləri	-7921
▁başla	-7922
▁başlamış	-7923
▁yazan	-7924
ologiyası	-7925
rul	-7926
▁səyahət	-7927
▁bilməzdi	-7928
dalı	-7929
▁təzah	-7930
▁pillə	-7931
▁bilərsən	-7932
▁cəd	-7933
▁Hacıb	-7934
▁enerj	-7935
▁söhbəti	-7936
AD	-7937
▁düşər	-7938
texniki	-7939
▁uğursuz	-7940
▁olmas	-7941
▁qaçıb	-7942
▁xalqa	-7943
▁dedilər	-7944
öbə	-7945
ularaq	-7946
▁sırasında	-7947
▁məhkəmənin	-7948
iyyatı	-7949
▁görürəm	-7950
▁dövlətimizin	-7951
▁kitabları	-7952
▁prioritet	-7953
▁səsver	-7954
▁deyəndə	-7955
▁istəyirik	-7956
▁39	-7957
duqdan	-7958
siyasını	-7959
oqram	-7960
▁hesabat	-7961
▁aktual	-7962
▁Torp	-7963
▁nitq	-7964
Əliyev	-7965
layaraq	-7966
▁Vaşinqt	-7967
▁saxlayıb	-7968
▁65	-7969
▁operativ	-7970
ılmır	-7971
▁Donald	-7972
▁qaynaq	-7973
▁Məhərrəm	-7974
▁Təhlükəsizliyi	-7975
▁Babayev	-7976
▁incəsənət	-7977
▁Azərbaycandakı	-7978
▁Ekspert	-7979
nif	-7980
▁sel	-7981
▁qazanıb	-7982
▁İnstitutunun	-7983
Həm	-7984
▁sualı	-7985
▁düşmənin	-7986
▁baxa	-7987
▁adlanır	-7988
▁irəliləy	-7989
▁qarşısına	-7990
▁problemlərin	-7991
▁ödənilməsi	-7992
rafi	-7993
▁alov	-7994
▁Ana	-7995
AK	-7996
▁Orxan	-7997
▁bilet	-7998
▁qeder	-7999
▁doktoru	-8000
▁istəmirəm	-8001
▁qırx	-8002
▁xidmətindən	-8003
▁zədə	-8004
▁dəli	-8005
▁sonralar	-8006
ülbül	-8007
▁Ək	-8008
luğuna	-8009
▁gətiril	-8010
▁Müasir	-8011
madığı	-8012
ricən	-8013
▁qələm	-8014
▁Təc	-8015
ira	-8016
▁Putinin	-8017
qu	-8018
▁Cabbar	-8019
▁əsasını	-8020
▁komitəsinin	-8021
▁müddətə	-8022
▁təklifi	-8023
▁Kön	-8024
▁məlumatların	-8025
▁bələdiyyə	-8026
▁körpü	-8027
arsa	-8028
▁prose	-8029
▁üstündən	-8030
▁süm	-8031
▁hay	-8032
▁bizdən	-8033
sat	-8034
əfa	-8035
▁təminatı	-8036
▁Bey	-8037
▁şöhrət	-8038
▁qoşunları	-8039
▁etməsinə	-8040
▁üzündən	-8041
qab	-8042
▁ifa	-8043
▁konsep	-8044
▁təşkilatlar	-8045
▁Sim	-8046
qı	-8047
onim	-8048
▁Məq	-8049
▁soyqırım	-8050
IR	-8051
təzəm	-8052
ləşir	-8053
▁Əy	-8054
olik	-8055
çiliy	-8056
asport	-8057
▁Konstitusiya	-8058
▁etdiyim	-8059
lərindəki	-8060
”.“	-8061
▁işçilər	-8062
▁keçəcəyi	-8063
AH	-8064
▁pdfi	-8065
▁növbəsində	-8066
▁xatirə	-8067
▁aralarında	-8068
▁fərqi	-8069
anıma	-8070
▁payız	-8071
▁prosedur	-8072
▁Mə	-8073
udiyyə	-8074
müddətli	-8075
▁yazılan	-8076
▁niyyətində	-8077
▁məsələsinə	-8078
əyev	-8079
▁55	-8080
▁ilədək	-8081
▁Yasamal	-8082
▁dad	-8083
▁bilib	-8084
▁həyatda	-8085
məkdədir	-8086
▁bilavasitə	-8087
▁tutaraq	-8088
siyaların	-8089
▁qənaət	-8090
▁istədiyi	-8091
▁(18	-8092
▁baxmaq	-8093
▁statistik	-8094
▁dəm	-8095
▁Birliyi	-8096
▁qətimkan	-8097
▁infeksiyasına	-8098
iyaların	-8099
alaraq	-8100
▁dövlətə	-8101
bal	-8102
üğ	-8103
▁Kol	-8104
▁tərəfin	-8105
▁Emin	-8106
▁korp	-8107
▁yayılıb	-8108
▁tərəflərin	-8109
lərimizə	-8110
▁paylaşım	-8111
rəti	-8112
▁borclu	-8113
▁sualları	-8114
▁görər	-8115
45	-8116
acaqdır	-8117
▁qoyulan	-8118
▁Elekt	-8119
▁verməyib	-8120
▁televiziya	-8121
▁tanrı	-8122
▁tərbiy	-8123
▁eyn	-8124
▁mübarizədə	-8125
▁qurb	-8126
əyinizi	-8127
tal	-8128
▁qın	-8129
▁dərindən	-8130
▁det	-8131
ranın	-8132
▁səslə	-8133
▁təşkilatı	-8134
ofiq	-8135
▁heyrət	-8136
aqqal	-8137
dirdi	-8138
▁siqaret	-8139
müs	-8140
▁atar	-8141
▁fəxri	-8142
▁Tiflis	-8143
▁beyn	-8144
▁edəndə	-8145
COVID	-8146
▁çö	-8147
▁py	-8148
ulla	-8149
▁məlumatlara	-8150
▁Fu	-8151
oks	-8152
istifadə	-8153
kov	-8154
ayiət	-8155
▁statusu	-8156
▁strateg	-8157
▁Ümumdünya	-8158
▁İbrahimov	-8159
▁kral	-8160
▁qarşısı	-8161
▁parçalan	-8162
ilin	-8163
▁gizlə	-8164
aur	-8165
umda	-8166
ununa	-8167
▁Pakistan	-8168
▁təqribən	-8169
▁yaradıcılıq	-8170
▁qurumun	-8171
▁növləri	-8172
”)	-8173
▁hala	-8174
zə	-8175
▁Kazım	-8176
▁birləşmə	-8177
▁fərman	-8178
▁təslim	-8179
udur	-8180
▁əhaliyə	-8181
▁həyatında	-8182
▁gedəcək	-8183
▁suy	-8184
▁çər	-8185
▁ölkəmizə	-8186
Hadisə	-8187
▁Yunanı	-8188
▁Heyətinin	-8189
rini	-8190
madığını	-8191
▁gəlsin	-8192
▁kal	-8193
▁Gözəl	-8194
▁effektiv	-8195
vari	-8196
▁cəmiyyətdə	-8197
26	-8198
qara	-8199
▁eylə	-8200
asar	-8201
▁qapalı	-8202
▁tanınan	-8203
▁fikirlərini	-8204
▁с	-8205
▁Muz	-8206
▁fit	-8207
çüncü	-8208
▁qurumları	-8209
▁qüvvədə	-8210
Re	-8211
▁Qət	-8212
mənalı	-8213
şər	-8214
▁Yaq	-8215
pərəst	-8216
▁kollegiyası	-8217
had	-8218
atan	-8219
▁planı	-8220
▁mənbəyi	-8221
▁intellekt	-8222
Məs	-8223
məxsus	-8224
▁cihaz	-8225
▁ibtidai	-8226
▁təşkilatın	-8227
▁Hidrometeor	-8228
eyri	-8229
▁insana	-8230
▁respublikanın	-8231
▁Həkim	-8232
▁ortaq	-8233
▁dayanıb	-8234
▁halında	-8235
▁nüfuzlu	-8236
▁Bizə	-8237
ünürəm	-8238
▁əlifb	-8239
▁vurdu	-8240
▁qrupda	-8241
▁imkanlar	-8242
▁Cəm	-8243
dəmir	-8244
▁özlərinə	-8245
▁Qarşı	-8246
▁Ordusu	-8247
ER	-8248
alda	-8249
eber	-8250
▁rejiminin	-8251
dəm	-8252
▁Sənə	-8253
▁dinamik	-8254
gilər	-8255
▁gözüm	-8256
▁hektar	-8257
imn	-8258
▁ten	-8259
▁asılıdır	-8260
düş	-8261
əncamı	-8262
işə	-8263
yavaş	-8264
enko	-8265
▁balı	-8266
▁Xətai	-8267
ij	-8268
erv	-8269
▁şübhəsiz	-8270
▁borcu	-8271
▁oldular	-8272
▁üsyan	-8273
▁qayıdıb	-8274
akar	-8275
▁Din	-8276
Onlar	-8277
onent	-8278
▁fəda	-8279
▁müşayiət	-8280
tps	-8281
▁olunmur	-8282
▁Kub	-8283
▁yenilik	-8284
edil	-8285
▁şairi	-8286
▁Ət	-8287
▁op	-8288
▁bağç	-8289
asıdır	-8290
▁Əliyevə	-8291
▁səhifəsində	-8292
▁Kur	-8293
▁əri	-8294
▁1991-	-8295
Vətən	-8296
ləşməsi	-8297
▁dünyanı	-8298
▁gəlməsi	-8299
▁Növ	-8300
▁Rza	-8301
▁5.	-8302
▁əyalət	-8303
▁bilirik	-8304
▁vətənpərvər	-8305
▁məqsədə	-8306
▁aşıq	-8307
▁akademik	-8308
HT	-8309
▁:)	-8310
lıqların	-8311
▁hadisənin	-8312
▁Maş	-8313
▁lövh	-8314
▁kec	-8315
▁Dağı	-8316
hazırda	-8317
▁()	-8318
▁olacağını	-8319
▁Həb	-8320
▁Həmi	-8321
▁başlayacaq	-8322
▁Açıq	-8323
▁Qorq	-8324
▁vurur	-8325
▁not	-8326
örmətli	-8327
▁mətbuata	-8328
▁nur	-8329
▁bildi	-8330
tul	-8331
ultur	-8332
yaşlı	-8333
▁istək	-8334
▁bilmirlər	-8335
ıza	-8336
▁avtomobili	-8337
dağ	-8338
▁etdikdən	-8339
▁çatışmaz	-8340
):	-8341
üzar	-8342
▁Sabunçu	-8343
▁Samir	-8344
▁islahatlar	-8345
üləcək	-8346
▁vaxta	-8347
▁ölənlərin	-8348
qol	-8349
▁nəv	-8350
▁havada	-8351
▁pandemiya	-8352
kim	-8353
▁yapış	-8354
Nazir	-8355
azadə	-8356
▁1000	-8357
▁kasıb	-8358
tomobil	-8359
▁Təşkilatı	-8360
▁atır	-8361
▁görünən	-8362
▁instansiya	-8363
▁müharibəyə	-8364
avar	-8365
eputat	-8366
mədiyi	-8367
▁dairəsi	-8368
lem	-8369
▁atəşkəs	-8370
▁Müsəlman	-8371
▁girib	-8372
▁özəlləşdirmə	-8373
▁Hidrometeorologiya	-8374
▁yunan	-8375
▁elmləri	-8376
▁Mingəçevir	-8377
▁Müəllif	-8378
▁tədricən	-8379
▁olacaqdır	-8380
▁səfərbər	-8381
▁yaranması	-8382
rab	-8383
aldı	-8384
▁Tap	-8385
▁rəğ	-8386
▁Sonr	-8387
ava	-8388
▁atasının	-8389
▁toplantı	-8390
▁hallarının	-8391
krayn	-8392
▁uzaqlaş	-8393
99	-8394
▁bacısı	-8395
yol	-8396
▁yerlərində	-8397
aye	-8398
▁sı	-8399
▁ulu	-8400
▁qaldırıb	-8401
▁Qarabağa	-8402
▁qanad	-8403
▁eləmək	-8404
▁baxanda	-8405
▁UN	-8406
▁mehriban	-8407
nak	-8408
▁matç	-8409
▁gun	-8410
▁övladı	-8411
tiş	-8412
OCAR	-8413
▁salır	-8414
lamış	-8415
▁fili	-8416
▁iclası	-8417
▁həmsədr	-8418
▁cəl	-8419
▁İŞİD	-8420
▁əldən	-8421
▁artırmaq	-8422
▁müntəzəm	-8423
zib	-8424
▁satışı	-8425
▁Nazim	-8426
▁yazmısınız	-8427
▁rütb	-8428
▁mükəm	-8429
ğur	-8430
▁Çar	-8431
tifik	-8432
▁etsinlər	-8433
▁məna	-8434
casına	-8435
▁ölümü	-8436
▁folklor	-8437
▁rayonları	-8438
▁özünəməxsus	-8439
▁Vurğun	-8440
ləndirir	-8441
▁maddəsində	-8442
▁əda	-8443
-19-	-8444
▁əmri	-8445
Qur	-8446
▁nöq	-8447
▁budaq	-8448
illik	-8449
▁toxum	-8450
▁nəfərdir	-8451
▁xəbərlər	-8452
uyğun	-8453
elinin	-8454
▁hüququn	-8455
▁prospekti	-8456
▁nələr	-8457
▁normativ	-8458
▁razılaşdır	-8459
aza	-8460
rom	-8461
▁Sa	-8462
▁50-	-8463
▁Rafiq	-8464
▁sahibkarlıq	-8465
mamışdı	-8466
▁aşiq	-8467
▁istismar	-8468
▁Ərəbist	-8469
▁ast	-8470
▁zənc	-8471
▁FHN	-8472
.2.	-8473
▁Tofiq	-8474
▁qubern	-8475
▁Assambl	-8476
▁Şahin	-8477
müşdür	-8478
▁Səni	-8479
▁himay	-8480
▁istərdim	-8481
75	-8482
yəm	-8483
▁Müz	-8484
▁Səl	-8485
LI	-8486
sion	-8487
▁Şəhid	-8488
▁xalqların	-8489
.1.	-8490
▁metal	-8491
▁fəhlə	-8492
▁barmaq	-8493
▁nax	-8494
lənməsinə	-8495
▁törədən	-8496
▁sağlamlıq	-8497
▁hazırdır	-8498
▁qərargah	-8499
▁cix	-8500
▁yollar	-8501
birindən	-8502
▁küçə	-8503
▁coğraf	-8504
mamışdır	-8505
▁dus	-8506
▁gənclərin	-8507
▁ölkələrdən	-8508
▁Leyla	-8509
▁ölkələrə	-8510
▁yaza	-8511
▁şairin	-8512
▁etmirəm	-8513
▁çıxarmaq	-8514
▁alınmış	-8515
▁keçirdikləri	-8516
üldü	-8517
▁Lap	-8518
▁cavablandırılacaq	-8519
ret	-8520
▁Deyir	-8521
▁Interpress	-8522
▁lazim	-8523
▁Qaf	-8524
dirir	-8525
xanada	-8526
▁Ramiz	-8527
▁uzunmüddətli	-8528
osof	-8529
▁görək	-8530
▁əsərlər	-8531
▁mükəmməl	-8532
At	-8533
outube	-8534
lamağa	-8535
Bununla	-8536
▁mətbəx	-8537
▁işıqlandır	-8538
▁məlumatlandır	-8539
▁dostu	-8540
▁duyğu	-8541
▁toplusu	-8542
▁platform	-8543
▁idik	-8544
▁Cam	-8545
▁kəndləri	-8546
▁itki	-8547
▁yaşadıq	-8548
▁çıxarır	-8549
▁bildiril	-8550
▁baha	-8551
ılırdı	-8552
▁çıxacaq	-8553
▁daşıyıcı	-8554
▁məktəbə	-8555
fa	-8556
▁istəyiniz	-8557
ommun	-8558
▁rəhbərliyinin	-8559
▁000	-8560
▁Ayrı	-8561
▁ehtiram	-8562
▁ayda	-8563
▁yazaraq	-8564
▁Əsədov	-8565
elyasiya	-8566
ğalı	-8567
xanlı	-8568
iyasını	-8569
▁rəf	-8570
▁Kamran	-8571
▁əsaslanan	-8572
adis	-8573
▁Birdən	-8574
Rus	-8575
gar	-8576
▁çalışırlar	-8577
indədir	-8578
▁anti	-8579
▁çeş	-8580
ze	-8581
▁qurmaq	-8582
▁Köç	-8583
▁sükut	-8584
▁saxlayır	-8585
oji	-8586
▁Tom	-8587
▁Vahid	-8588
▁tədar	-8589
▁mənimlə	-8590
▁sa	-8591
▁göstərilib	-8592
▁şeydir	-8593
▁Səudiyyə	-8594
▁qarışdır	-8595
ildən	-8596
▁termin	-8597
▁qoşunlarının	-8598
▁Mix	-8599
▁mene	-8600
▁arzulay	-8601
▁müstəqillik	-8602
abah	-8603
▁Kommun	-8604
▁zarafat	-8605
29	-8606
▁Görünür	-8607
▁Xankəndi	-8608
▁qaydasında	-8609
▁Təqsirləndirilən	-8610
▁Nig	-8611
▁Siyasi	-8612
ılmaq	-8613
▁bitki	-8614
▁təbliğat	-8615
▁dodaq	-8616
▁etmişik	-8617
▁gətirmək	-8618
▁törətdiyi	-8619
▁saf	-8620
▁şüur	-8621
▁zorla	-8622
▁tədarük	-8623
ədəm	-8624
▁irəl	-8625
▁Sergey	-8626
▁Rusiyadan	-8627
▁biç	-8628
▁Özbəki	-8629
▁verdilər	-8630
▁deyirsən	-8631
.-	-8632
▁Un	-8633
▁Əbd	-8634
▁yüzlərlə	-8635
▁mülah	-8636
▁heykəl	-8637
▁sayını	-8638
▁amansız	-8639
▁dəstəsi	-8640
▁qatı	-8641
▁şeyin	-8642
▁Fondu	-8643
▁nümayəndələrinin	-8644
▁Mehdi	-8645
▁Qaç	-8646
▁Natiq	-8647
▁düşmək	-8648
▁Sadıq	-8649
▁rütubət	-8650
▁çıxa	-8651
▁hücuma	-8652
▁buradan	-8653
▁təşkilatları	-8654
▁yazmısınızsa	-8655
▁rəqs	-8656
keç	-8657
anları	-8658
▁dolaş	-8659
▁bugünkü	-8660
▁çevrilir	-8661
▁idmançı	-8662
▁mif	-8663
▁şəkli	-8664
▁doy	-8665
çə	-8666
▁böyüy	-8667
▁göstərirdi	-8668
▁İstəyinizi	-8669
▁APA	-8670
▁70-	-8671
alel	-8672
▁Mür	-8673
▁məzmun	-8674
▁maşının	-8675
prezidenti	-8676
Dün	-8677
▁aydınlıq	-8678
▁İvan	-8679
▁pred	-8680
udilər	-8681
▁Elmi	-8682
ederal	-8683
lərimi	-8684
▁Ələsgər	-8685
▁Əd	-8686
əydi	-8687
övləti	-8688
▁kilsə	-8689
▁düşmür	-8690
▁uzunluğu	-8691
▁Qı	-8692
atika	-8693
▁Yay	-8694
▁xarab	-8695
fik	-8696
▁hüz	-8697
indan	-8698
▁fasilə	-8699
▁gördüy	-8700
▁tərkibinə	-8701
▁falan	-8702
▁tapan	-8703
incə	-8704
▁Tədqiqat	-8705
▁46	-8706
ərçəng	-8707
lax	-8708
▁kv	-8709
kənar	-8710
▁Bəx	-8711
▁н	-8712
▁yönəldil	-8713
▁təyinatlı	-8714
▁Ul	-8715
ekst	-8716
▁alacaq	-8717
▁rəm	-8718
▁2012-	-8719
▁gələrək	-8720
▁alınır	-8721
▁buraya	-8722
▁vəzifəsini	-8723
▁ərazilərin	-8724
▁evlən	-8725
Tər	-8726
▁Rom	-8727
▁saxt	-8728
▁Layih	-8729
▁qəlbi	-8730
dadı	-8731
▁meyl	-8732
▁Xüsusilə	-8733
odu	-8734
▁Vüs	-8735
▁Dəh	-8736
▁etn	-8737
▁dust	-8738
▁qışqır	-8739
▁kimya	-8740
▁mədəniyyətinin	-8741
▁xidmətə	-8742
▁baxan	-8743
▁təfəkkür	-8744
▁göstərmişdir	-8745
fət	-8746
▁yoxsul	-8747
▁gələcəyi	-8748
▁məsələlərə	-8749
məzdi	-8750
▁həqiqəti	-8751
▁pol	-8752
▁olmasının	-8753
Bay	-8754
poz	-8755
ağım	-8756
▁gur	-8757
▁qondarma	-8758
▁əməliyyatları	-8759
DB	-8760
udu	-8761
▁çəkilib	-8762
▁saxlaya	-8763
keş	-8764
Görüş	-8765
▁rəis	-8766
itiv	-8767
▁qızlar	-8768
▁xəyanət	-8769
▁Administr	-8770
▁boru	-8771
▁çıxışında	-8772
▁ta	-8773
▁yaşamış	-8774
iymət	-8775
▁Rəşad	-8776
▁MTN	-8777
▁2000-	-8778
yak	-8779
-19)	-8780
▁2011-	-8781
▁muzey	-8782
▁Hikmət	-8783
?”	-8784
▁qərəz	-8785
▁vaxtilə	-8786
iyər	-8787
▁millətin	-8788
▁başqaları	-8789
▁görəsən	-8790
▁əsrlərdə	-8791
▁boyda	-8792
▁çatan	-8793
▁Federasiyası	-8794
hüquq	-8795
▁uşaqlara	-8796
nam	-8797
ene	-8798
bilisi	-8799
▁Ümumilikdə	-8800
▁vəzifəsindən	-8801
▁tarixinin	-8802
əhsil	-8803
ilərinə	-8804
▁istintaqa	-8805
axan	-8806
▁Zaqat	-8807
▁Akt	-8808
oğlunun	-8809
▁ocaq	-8810
▁birliyi	-8811
▁Əkbər	-8812
iyəm	-8813
▁gər	-8814
▁İsteh	-8815
▁laborator	-8816
Neft	-8817
▁surs	-8818
▁şif	-8819
▁öhdəs	-8820
yır	-8821
▁təşkilatların	-8822
▁genişləndirilməsi	-8823
▁şan	-8824
▁müstəv	-8825
▁nöqsan	-8826
:0	-8827
aiq	-8828
▁əylən	-8829
▁çalışırdı	-8830
▁edildiyini	-8831
▁qüvvələrin	-8832
abi	-8833
▁Düzdür	-8834
▁eht	-8835
ınızı	-8836
▁si	-8837
▁atdı	-8838
▁stadi	-8839
▁qurumlar	-8840
▁rub	-8841
▁ideal	-8842
▁Bunların	-8843
ori	-8844
▁Şəmkir	-8845
▁dövrlərdə	-8846
▁sətir	-8847
ullayev	-8848
▁hakimi	-8849
▁həsrət	-8850
▁Rob	-8851
▁ede	-8852
neft	-8853
▁Rum	-8854
▁səviyyəli	-8855
▁açdı	-8856
▁kab	-8857
▁illərdir	-8858
▁Bul	-8859
▁tullantı	-8860
▁baxın	-8861
▁turn	-8862
▁Assambley	-8863
▁üçtərəfli	-8864
▁dillərində	-8865
▁mo	-8866
▁Fiz	-8867
▁boz	-8868
▁öyrə	-8869
ılmalı	-8870
▁dönüb	-8871
▁qəpik	-8872
▁tərəfdə	-8873
▁yanğından	-8874
▁azadlığı	-8875
laşır	-8876
▁Qorqud	-8877
▁miqy	-8878
▁Aq	-8879
▁sürüş	-8880
one	-8881
▁cins	-8882
▁işləyib	-8883
▁keçirilməsinə	-8884
▁Səlim	-8885
▁taleyi	-8886
▁Zelenski	-8887
▁Ra	-8888
▁60-	-8889
▁adının	-8890
▁olmağı	-8891
ino	-8892
▁Məz	-8893
▁əlaqələndir	-8894
ığır	-8895
▁pedaq	-8896
▁qrupa	-8897
▁qox	-8898
anlıqla	-8899
▁pasport	-8900
▁Kamal	-8901
▁müdrik	-8902
▁atan	-8903
▁dərdi	-8904
▁göstərəcək	-8905
▁Medi	-8906
birini	-8907
▁quldur	-8908
gel	-8909
lilik	-8910
▁işlərə	-8911
▁zorakı	-8912
vəti	-8913
▁Fuad	-8914
▁Ermənistanla	-8915
▁göstərə	-8916
▁uduz	-8917
ızın	-8918
▁demişdi	-8919
▁hissədə	-8920
Sən	-8921
rika	-8922
▁izləy	-8923
▁təntən	-8924
▁Nəriman	-8925
▁yerləşdiyi	-8926
otek	-8927
ropa	-8928
▁konst	-8929
▁Bər	-8930
miqyaslı	-8931
▁gərginlik	-8932
ET	-8933
Eyni	-8934
▁naməlum	-8935
▁şirkətin	-8936
Milli	-8937
то	-8938
dirə	-8939
▁münaqişəsinin	-8940
iyaları	-8941
mədim	-8942
▁qəşəng	-8943
▁nazirin	-8944
▁maddələr	-8945
▁şəxsləri	-8946
▁İsa	-8947
▁saxlanılması	-8948
▁planet	-8949
ely	-8950
axanı	-8951
▁suya	-8952
söndür	-8953
▁torpaqları	-8954
▁vətəndaşlara	-8955
▁eşidən	-8956
▁poetik	-8957
▁təqaüd	-8958
▁başçılıq	-8959
▁ərəfəsində	-8960
▁İmam	-8961
dilli	-8962
▁qoruyub	-8963
▁Sin	-8964
▁mövzusu	-8965
▁bük	-8966
▁işçiləri	-8967
▁köy	-8968
▁ləzz	-8969
layırdı	-8970
▁gözdən	-8971
▁görülür	-8972
▁yoluxanların	-8973
▁Çingiz	-8974
▁etməyən	-8975
▁prosessual	-8976
İst	-8977
ilaf	-8978
izmə	-8979
▁sınağ	-8980
▁artırır	-8981
AŞ	-8982
▁şöbə	-8983
▁getdim	-8984
▁Komissiyasının	-8985
▁təqib	-8986
▁kişinin	-8987
▁deputatı	-8988
▁əməliyyatlar	-8989
▁о	-8990
layın	-8991
▁biləcəyini	-8992
▁orqanlarına	-8993
▁şer	-8994
▁Saat	-8995
▁cis	-8996
▁suala	-8997
▁vəziyyətinə	-8998
ınt	-8999
▁Akif	-9000
▁dalınca	-9001
umer	-9002
▁31-	-9003
▁çör	-9004
laşan	-9005
▁vəzifəsi	-9006
▁izlə	-9007
▁görüşlər	-9008
▁qayıda	-9009
▁ağız	-9010
▁Dünyanın	-9011
ilərini	-9012
▁əla	-9013
▁xit	-9014
▁edilməsinin	-9015
▁bala	-9016
verici	-9017
Mir	-9018
bax	-9019
iva	-9020
▁dairə	-9021
▁xatırladı	-9022
▁Mikayıl	-9023
İş	-9024
▁43	-9025
▁cır	-9026
▁anam	-9027
▁təsnif	-9028
▁Fəx	-9029
▁Çinin	-9030
▁memarlıq	-9031
▁Tən	-9032
▁şahın	-9033
ləridir	-9034
▁qəsəbəsi	-9035
▁tir	-9036
lılar	-9037
▁Yeri	-9038
▁qazandır	-9039
▁olanların	-9040
▁konfransında	-9041
ülər	-9042
▁Dəst	-9043
▁mənasız	-9044
▁audi	-9045
▁etimad	-9046
çuluq	-9047
▁buğ	-9048
▁AD	-9049
irdim	-9050
▁Həyat	-9051
▁bildim	-9052
adimi	-9053
▁sona	-9054
▁məktubu	-9055
▁189	-9056
▁Aşıq	-9057
tah	-9058
siyada	-9059
Amma	-9060
▁Tədbir	-9061
▁işində	-9062
▁600	-9063
▁uca	-9064
fəlik	-9065
▁yanacaq	-9066
akit	-9067
▁başdan	-9068
▁bayrağı	-9069
▁xəstəliy	-9070
▁təşkilatının	-9071
▁edilmir	-9072
▁istəyirsən	-9073
▁4,	-9074
ümüş	-9075
▁məhsuldar	-9076
usan	-9077
▁Kərimov	-9078
▁AR	-9079
▁basdır	-9080
▁bolşevik	-9081
▁ә	-9082
▁müx	-9083
nu	-9084
▁Elmlər	-9085
▁dövriyy	-9086
əstin	-9087
▁müxalifət	-9088
ümay	-9089
▁Dünən	-9090
▁çayının	-9091
▁məsələsini	-9092
▁mənşəli	-9093
▁Əməkdaşlıq	-9094
▁dəyərli	-9095
▁layihəsinin	-9096
Öz	-9097
▁korrup	-9098
məsə	-9099
▁nədi	-9100
▁2010-	-9101
▁texnika	-9102
esen	-9103
▁doza	-9104
▁inter	-9105
▁orqanizm	-9106
▁sənədlərin	-9107
▁məzənn	-9108
atlarının	-9109
▁qiymətləri	-9110
▁5,	-9111
▁şimşək	-9112
▁əsərin	-9113
▁tərkibi	-9114
▁yazıq	-9115
▁gəlmişdir	-9116
mısan	-9117
▁səlahiyyətli	-9118
▁qismi	-9119
▁mitinq	-9120
▁göndərib	-9121
▁aldım	-9122
▁uçur	-9123
▁dənizi	-9124
ensi	-9125
▁mühasir	-9126
▁güclənəcək	-9127
▁yem	-9128
eye	-9129
▁kölg	-9130
iyetmə	-9131
▁ailənin	-9132
▁radikal	-9133
▁böyü	-9134
▁təşkilatçı	-9135
▁məsələsində	-9136
▁Mold	-9137
▁təcrid	-9138
▁Abbasov	-9139
▁cinsi	-9140
▁minimum	-9141
▁incə	-9142
▁bunlara	-9143
ular	-9144
▁desək	-9145
leytenant	-9146
▁buraxılıb	-9147
UR	-9148
uri	-9149
ulun	-9150
▁alqış	-9151
▁dedik	-9152
▁meyvə	-9153
▁Bayden	-9154
:\”	-9155
diz	-9156
▁nən	-9157
▁əlaqələrinin	-9158
▁xor	-9159
adıma	-9160
▁qərarlar	-9161
miy	-9162
ılmam	-9163
▁saxla	-9164
▁Yardım	-9165
▁binası	-9166
▁karb	-9167
birinin	-9168
▁qaldırmaq	-9169
rad	-9170
xoş	-9171
▁məhb	-9172
▁hadisəni	-9173
▁mərhələsi	-9174
uç	-9175
▁dinlə	-9176
▁inkar	-9177
▁söylədi	-9178
▁sonda	-9179
▁xüsusiyyətləri	-9180
▁dır	-9181
▁çin	-9182
▁İbn	-9183
madım	-9184
▁həllinə	-9185
tun	-9186
▁çimər	-9187
▁müəllimin	-9188
▁Sov	-9189
▁sön	-9190
▁erkən	-9191
▁çağırır	-9192
▁əhəmiyyətini	-9193
▁Le	-9194
▁Ailə	-9195
▁Sarı	-9196
▁niyyət	-9197
▁seçimi	-9198
▁sındır	-9199
▁yaydığı	-9200
▁görünürdü	-9201
anr	-9202
▁müsahibəsində	-9203
lanın	-9204
▁gəlmişkən	-9205
▁qələmə	-9206
▁Tağıyev	-9207
▁özümə	-9208
▁yarpaq	-9209
▁kompens	-9210
▁saytında	-9211
kon	-9212
▁QHT	-9213
▁ayın	-9214
▁qaydalarını	-9215
his	-9216
▁dev	-9217
▁Fərman	-9218
▁açıqlan	-9219
▁dəyişən	-9220
▁sertifik	-9221
məh	-9222
▁Hacıbəy	-9223
▁fəlsəfə	-9224
siyasında	-9225
▁dayı	-9226
▁Kolleg	-9227
▁Sor	-9228
▁yuv	-9229
▁Dünyada	-9230
▁ur	-9231
▁Müstəqil	-9232
ənah	-9233
▁məmul	-9234
▁ordan	-9235
▁Koreya	-9236
dırım	-9237
ww	-9238
▁artiller	-9239
▁dayanır	-9240
▁dov	-9241
▁seyr	-9242
▁Elnur	-9243
▁yoluna	-9244
▁rəqabət	-9245
qəs	-9246
▁qucaq	-9247
▁Cəfərov	-9248
uvar	-9249
▁günahkar	-9250
▁adsız	-9251
Bak	-9252
iyyən	-9253
▁Babək	-9254
▁Danış	-9255
▁xanımın	-9256
▁kef	-9257
▁poem	-9258
▁bazarında	-9259
▁qaf	-9260
ğında	-9261
▁mövqeləri	-9262
uluğu	-9263
▁sayılan	-9264
▁Mehdiyev	-9265
▁adım	-9266
ləşdirilib	-9267
▁məsuliyyətə	-9268
dirsə	-9269
▁poçt	-9270
uşu	-9271
oqrafik	-9272
▁yoluxub	-9273
▁nazirliyin	-9274
but	-9275
▁Bah	-9276
▁Bizdə	-9277
▁arası	-9278
▁Kanala	-9279
▁hücumu	-9280
▁Ye	-9281
▁the	-9282
▁açır	-9283
▁pərdə	-9284
▁bayraq	-9285
▁kapital	-9286
▁otuz	-9287
▁payı	-9288
uzə	-9289
diyə	-9290
2)	-9291
▁diaq	-9292
irtual	-9293
▁vermədi	-9294
▁kiloqram	-9295
▁Almaniyanın	-9296
▁yaşa	-9297
▁istifadəsi	-9298
▁mərasimində	-9299
▁atılan	-9300
▁hüququna	-9301
▁tədbirdə	-9302
fiq	-9303
▁zülm	-9304
▁ifadəsi	-9305
▁Əvvəlcə	-9306
▁İspaniya	-9307
kl	-9308
ğam	-9309
▁xam	-9310
▁ekspertiz	-9311
▁rifah	-9312
▁verirəm	-9313
▁hakimiyyətinin	-9314
▁Qayda	-9315
▁birmənalı	-9316
▁siyasətini	-9317
hməd	-9318
▁atın	-9319
▁Fərhad	-9320
▁düşərg	-9321
▁Orda	-9322
amızda	-9323
ürəm	-9324
ğunun	-9325
▁Məndə	-9326
▁narahatlıq	-9327
▁sırf	-9328
▁qaydalara	-9329
▁Əməliyyat	-9330
layim	-9331
▁emal	-9332
▁konstit	-9333
▁əmlakın	-9334
▁bö	-9335
▁lim	-9336
▁uydur	-9337
▁hissəsinə	-9338
▁Zakir	-9339
▁Riyaziyyat	-9340
0,	-9341
▁birisi	-9342
▁deməyə	-9343
▁Gömrük	-9344
▁problemin	-9345
▁tür	-9346
▁qapını	-9347
▁təxirə	-9348
çüsü	-9349
:00	-9350
▁taxıl	-9351
layıram	-9352
▁dövlətləri	-9353
▁İstanbulda	-9354
qərar	-9355
org	-9356
Lakin	-9357
▁oyunu	-9358
▁tutacaq	-9359
▁Şöbəsinin	-9360
▁Cey	-9361
▁təəss	-9362
odern	-9363
▁valyuta	-9364
▁böyükdür	-9365
▁ruhu	-9366
▁yaratdı	-9367
Mİ	-9368
ırı	-9369
kənd	-9370
▁Dar	-9371
▁doğrusu	-9372
▁gördüyü	-9373
▁səviyyəsinə	-9374
▁zərərsiz	-9375
▁kəsiş	-9376
▁avtomobilin	-9377
▁xeyrinə	-9378
▁kimyəvi	-9379
▁müəssisələri	-9380
▁Dəy	-9381
▁şur	-9382
▁Ener	-9383
▁sərmay	-9384
▁Biri	-9385
▁Yanğın	-9386
▁düşməni	-9387
▁birləşdirən	-9388
▁Müdafi	-9389
▁gəldim	-9390
▁Dur	-9391
▁darıx	-9392
▁parça	-9393
▁Axundov	-9394
▁torpağı	-9395
▁məzar	-9396
vətən	-9397
▁Düşünürəm	-9398
▁kitabxana	-9399
▁IV	-9400
nəzər	-9401
▁Stan	-9402
antik	-9403
▁keçə	-9404
▁müharibədə	-9405
▁Ben	-9406
▁bəxş	-9407
rend	-9408
▁ixtiyar	-9409
▁koordin	-9410
▁Ven	-9411
▁Qoca	-9412
▁Texn	-9413
▁qop	-9414
▁ssen	-9415
▁Konfran	-9416
▁ayrılan	-9417
▁tələbləri	-9418
getika	-9419
▁Öndər	-9420
▁qrupları	-9421
▁qətl	-9422
▁Bür	-9423
▁hək	-9424
▁nəzəri	-9425
▁məcburiyyətində	-9426
▁baxılması	-9427
▁Dörd	-9428
▁qopar	-9429
▁dəftər	-9430
▁qüvvəsi	-9431
▁vətəndaşlarının	-9432
yub	-9433
▁yoldan	-9434
▁Akademiyasının	-9435
30-	-9436
ulan	-9437
▁Cavanş	-9438
ənnət	-9439
irs	-9440
birə	-9441
▁And	-9442
▁olmuşuq	-9443
▁Atmosfer	-9444
▁mac	-9445
▁politoloq	-9446
▁polisə	-9447
▁əraziləri	-9448
eterburq	-9449
▁faktlar	-9450
▁şəxslərdən	-9451
▁Gürcüstanda	-9452
yön	-9453
▁qayıtmaq	-9454
seç	-9455
▁1994-	-9456
▁mülayim	-9457
▁layihələri	-9458
▁edilməli	-9459
▁Port	-9460
▁tərəfinə	-9461
amızın	-9462
avil	-9463
▁edəcəyini	-9464
▁hüdud	-9465
▁qızdır	-9466
▁Şirin	-9467
▁Ekologiya	-9468
▁sisteminə	-9469
▁durum	-9470
▁Assosi	-9471
▁prosesinə	-9472
tiyar	-9473
karlıq	-9474
▁Zəfər	-9475
▁xitam	-9476
▁işlərini	-9477
▁yağı	-9478
▁doktor	-9479
▁rəsmisi	-9480
▁İnformasiya	-9481
rid	-9482
▁zəb	-9483
NT	-9484
▁göndərdi	-9485
▁dəyərləndir	-9486
isim	-9487
bari	-9488
▁işığ	-9489
▁2009-	-9490
▁diplomat	-9491
▁effekt	-9492
▁işğalı	-9493
▁arbitra	-9494
▁sərg	-9495
▁çevrildi	-9496
imcə	-9497
ogen	-9498
▁kəndin	-9499
▁olunmuşdu	-9500
▁materiallar	-9501
vili	-9502
inde	-9503
ələbə	-9504
▁sonsuz	-9505
▁konsert	-9506
siyalarının	-9507
▁keçəcək	-9508
kili	-9509
üstə	-9510
▁azyaşlı	-9511
▁maraqlan	-9512
▁dəstəkləyir	-9513
▁qanunvericiliyin	-9514
SK	-9515
▁85	-9516
▁bilirsiniz	-9517
▁araya	-9518
▁baxırdı	-9519
▁yüksəkliklərdə	-9520
▁filan	-9521
▁təhlükəsi	-9522
▁əməli	-9523
▁sey	-9524
ləduz	-9525
▁sərh	-9526
▁getməyə	-9527
▁teleq	-9528
▁üsulu	-9529
iliyini	-9530
▁Adil	-9531
▁nəticəyə	-9532
▁təkliflər	-9533
▁israil	-9534
▁Teatr	-9535
▁açılır	-9536
▁Abdulla	-9537
▁oxumağa	-9538
▁paralel	-9539
▁tamaşaçı	-9540
üsx	-9541
▁mərd	-9542
luqla	-9543
ilərdən	-9544
▁47	-9545
▁Şək	-9546
▁qayıdır	-9547
Hüseyn	-9548
▁ölü	-9549
Məhkə	-9550
ins	-9551
timal	-9552
▁ölümündən	-9553
▁gücləndiril	-9554
irsiz	-9555
▁qanı	-9556
▁gedəndə	-9557
▁mask	-9558
▁xərçəng	-9559
▁təkan	-9560
▁tutduğu	-9561
gö	-9562
▁MK	-9563
▁Soy	-9564
▁pan	-9565
▁Afrika	-9566
▁hərəkətlər	-9567
▁etməlidirlər	-9568
▁iqtisadiyyatı	-9569
gör	-9570
▁silin	-9571
▁İnş	-9572
▁Şuşada	-9573
▁göstərməyə	-9574
erc	-9575
alavr	-9576
▁fəxr	-9577
▁Dedim	-9578
▁Sahil	-9579
▁Yüksək	-9580
▁başçıları	-9581
orn	-9582
▁Beş	-9583
EY	-9584
▁əyləş	-9585
AB	-9586
▁axtarın	-9587
▁hissələri	-9588
▁təcrübəsi	-9589
▁Qırğ	-9590
mışdım	-9591
▁cəhət	-9592
eksiya	-9593
▁Hazır	-9594
▁sərkər	-9595
▁Məmmədova	-9596
▁qabiliyyəti	-9597
orlar	-9598
kilərin	-9599
▁qəbir	-9600
▁etməyin	-9601
▁klubu	-9602
▁söykən	-9603
▁hərəkətə	-9604
Əgər	-9605
ullah	-9606
▁Palat	-9607
▁Onlara	-9608
▁yəhudi	-9609
▁Müdafiəsi	-9610
▁genişmiqyaslı	-9611
▁alması	-9612
▁faizini	-9613
▁Tik	-9614
▁namaz	-9615
KK	-9616
Qaz	-9617
əqət	-9618
▁minik	-9619
▁vərdiş	-9620
bəl	-9621
▁Say	-9622
ılmayıb	-9623
▁təsbit	-9624
▁filosof	-9625
▁Fat	-9626
▁Əlavə	-9627
▁dastan	-9628
▁Ədalət	-9629
▁dövrünün	-9630
▁həyatının	-9631
▁qəzetinin	-9632
▁Aprel	-9633
▁xəstəliyi	-9634
oo	-9635
▁qrafik	-9636
▁Qasımov	-9637
▁ildön	-9638
▁sığort	-9639
▁gətirilib	-9640
▁mina	-9641
▁Rəsmi	-9642
▁Ədliyyə	-9643
▁Təsərrüf	-9644
▁diqqətini	-9645
verdi	-9646
▁Şərif	-9647
▁xadimi	-9648
▁başda	-9649
▁Qurbanov	-9650
▁maraqlarına	-9651
▁Prokurorluğun	-9652
▁əsrlər	-9653
▁girdi	-9654
▁taxta	-9655
▁qismət	-9656
▁günündə	-9657
▁tarixə	-9658
▁ekoloji	-9659
▁Avropaya	-9660
▁müqabil	-9661
▁fən	-9662
▁Sual	-9663
▁güll	-9664
▁sözlərini	-9665
▁məsuliyyəti	-9666
krayna	-9667
▁Vəkil	-9668
▁şaxta	-9669
▁əməkdaşlığı	-9670
▁getmə	-9671
▁çıxarı	-9672
▁fəlsəfi	-9673
▁praktik	-9674
▁maraqları	-9675
bet	-9676
▁dür	-9677
▁işləmək	-9678
▁etibarilə	-9679
▁işgəncə	-9680
▁daşınmaz	-9681
▁döndər	-9682
▁6,	-9683
osunun	-9684
▁müğənni	-9685
▁birdəfəlik	-9686
▁Paşa	-9687
▁oper	-9688
▁tarif	-9689
▁Onları	-9690
▁restor	-9691
▁Avtomobil	-9692
▁keyfiyyətli	-9693
iti	-9694
red	-9695
▁atmaq	-9696
ərlər	-9697
▁kabinet	-9698
▁56	-9699
▁nüsx	-9700
▁doğuran	-9701
aqon	-9702
▁oyunun	-9703
▁edirdim	-9704
imlə	-9705
adlıq	-9706
▁ikən	-9707
▁2024-	-9708
mersiya	-9709
▁şeyləri	-9710
▁şikayətinin	-9711
▁Sp	-9712
▁Sərvət	-9713
▁tapşırıqlar	-9714
▁dördüncü	-9715
▁tv	-9716
▁qada	-9717
▁Xanım	-9718
▁sədaq	-9719
▁oyunçu	-9720
naməsi	-9721
İc	-9722
▁alət	-9723
▁Sanki	-9724
▁sözünün	-9725
▁etməkdir	-9726
əssüm	-9727
ua	-9728
▁Ordub	-9729
▁xidmətlər	-9730
aqda	-9731
▁tutmaq	-9732
▁işgüzar	-9733
▁alınaraq	-9734
▁kənddə	-9735
▁kitabında	-9736
pə	-9737
▁Sür	-9738
ıntılar	-9739
▁Məmmədovun	-9740
PM	-9741
io	-9742
▁gözlənil	-9743
vay	-9744
▁təkzib	-9745
▁mövqelərdən	-9746
▁etik	-9747
▁üstü	-9748
▁Yaqub	-9749
55	-9750
eşə	-9751
▁MDB	-9752
▁1988-	-9753
▁kapitan	-9754
▁separatçı	-9755
▁ictimaiyyətə	-9756
▁qeydiyyata	-9757
ƏD	-9758
▁Div	-9759
▁dönəm	-9760
▁yarısı	-9761
▁dük	-9762
mırlar	-9763
▁axmaq	-9764
▁qoyulmuş	-9765
▁göstərilməsi	-9766
▁Fin	-9767
▁faş	-9768
▁miras	-9769
▁çiyin	-9770
uyan	-9771
▁yam	-9772
▁qalxdı	-9773
▁höv	-9774
▁özlərinin	-9775
▁döyüşlərdə	-9776
▁ruslar	-9777
▁yalvar	-9778
▁qanunu	-9779
pür	-9780
Bütün	-9781
▁mühitin	-9782
vanı	-9783
oniya	-9784
▁Nəcəf	-9785
▁mühaki	-9786
ılsa	-9787
▁cavabdehin	-9788
▁prinsipləri	-9789
isyan	-9790
ınıza	-9791
▁səslən	-9792
▁razılığa	-9793
▁ölkələrimiz	-9794
▁hərbçilər	-9795
ÜN	-9796
▁düşə	-9797
▁qoyan	-9798
ital	-9799
20-	-9800
▁Fətəli	-9801
▁materialları	-9802
▁sülhün	-9803
don	-9804
adaş	-9805
▁şərab	-9806
▁vacibliyini	-9807
nda	-9808
▁Qarayev	-9809
▁torpağa	-9810
▁kn	-9811
▁olmazdı	-9812
▁işlədil	-9813
▁götürülmüş	-9814
▁sız	-9815
▁gücləndirilməsi	-9816
oban	-9817
▁Tut	-9818
oteka	-9819
▁ünsiyyət	-9820
iətin	-9821
▁seçilmiş	-9822
Şah	-9823
▁Keçmiş	-9824
▁dərəcəsi	-9825
.10	-9826
endum	-9827
▁unudul	-9828
▁49	-9829
dində	-9830
▁alsaq	-9831
▁market	-9832
▁vəziyyətini	-9833
tac	-9834
▁cədvəl	-9835
oqrafiya	-9836
▁Haqq	-9837
▁təsdiqləyib	-9838
▁So	-9839
ölüm	-9840
▁AME	-9841
▁Cul	-9842
▁qit	-9843
muşam	-9844
ulmaz	-9845
təbəli	-9846
▁dəyib	-9847
▁yayılması	-9848
▁sair	-9849
▁düşməsi	-9850
▁и	-9851
opter	-9852
▁rəqəmsal	-9853
▁Em	-9854
▁üf	-9855
pək	-9856
ümkün	-9857
▁siqn	-9858
▁kontekst	-9859
▁2005-	-9860
▁zəfər	-9861
je	-9862
▁artaraq	-9863
cəy	-9864
....	-9865
▁layihənin	-9866
dis	-9867
▁Qaradağ	-9868
▁dəl	-9869
▁bilmirik	-9870
▁sistemləri	-9871
arsan	-9872
▁ibadət	-9873
▁altından	-9874
▁məntəqəsi	-9875
Tədbir	-9876
irdilər	-9877
1)	-9878
▁Dir	-9879
▁der	-9880
haqq	-9881
▁liman	-9882
▁lisenz	-9883
▁çəkisi	-9884
▁nəfərlik	-9885
▁Ata	-9886
▁sint	-9887
▁deyin	-9888
▁edirsən	-9889
▁aparılacaq	-9890
▁coğrafi	-9891
İS	-9892
▁iti	-9893
▁Rəşid	-9894
▁doğurur	-9895
▁gözə	-9896
▁gore	-9897
şan	-9898
▁Zir	-9899
▁dua	-9900
▁İsra	-9901
▁Polşa	-9902
Mər	-9903
▁dostum	-9904
urdular	-9905
▁iclasda	-9906
▁istəyi	-9907
▁Uşaqlar	-9908
▁almışdır	-9909
Bizim	-9910
matik	-9911
▁söyləy	-9912
▁Paşinyanın	-9913
▁nas	-9914
▁2007-	-9915
▁Kanada	-9916
▁apardı	-9917
▁Üzeyir	-9918
▁Zaqatala	-9919
3)	-9920
ızda	-9921
▁yorğun	-9922
▁sahəsinə	-9923
▁Ur	-9924
▁bağır	-9925
▁(4	-9926
▁Nor	-9927
▁Şura	-9928
▁Onsuz	-9929
▁getmir	-9930
▁qalması	-9931
əsmi	-9932
▁kəm	-9933
▁Yolları	-9934
▁koronavirusdan	-9935
ləm	-9936
▁per	-9937
▁azadlığa	-9938
▁tərzi	-9939
uzu	-9940
▁sanitar	-9941
▁Kap	-9942
▁ürəkdən	-9943
▁Konqres	-9944
kinin	-9945
dirmək	-9946
əşəkkil	-9947
▁yanıb	-9948
▁artisti	-9949
▁həyatına	-9950
▁187	-9951
sional	-9952
▁sürəti	-9953
▁danışmağa	-9954
▁komandası	-9955
▁arxiv	-9956
ırdıq	-9957
▁sağal	-9958
▁fəaliyyətində	-9959
▁kimdəsə	-9960
▁prosesdə	-9961
▁42	-9962
▁fizika	-9963
url	-9964
▁Qr	-9965
▁Nəsrəddin	-9966
Po	-9967
Böyük	-9968
▁qarı	-9969
▁İlah	-9970
▁Özbəkistan	-9971
▁Xaçmaz	-9972
▁keçərək	-9973
▁redak	-9974
▁Yaponiya	-9975
nar	-9976
▁genişləndir	-9977
▁Təz	-9978
mədiyini	-9979
▁yaxındır	-9980
▁keçirildi	-9981
▁bütövlüyünü	-9982
▁haradan	-9983
▁çatdırmaq	-9984
▁yadım	-9985
▁açılan	-9986
▁77	-9987
issor	-9988
▁atom	-9989
▁artan	-9990
)))	-9991
▁sümük	-9992
ruk	-9993
▁çıxması	-9994
▁imk	-9995
▁Ermənilər	-9996
▁qərarın	-9997
▁edirsiniz	-9998
▁yəhudilər	-9999
▁Müsavat	-10000
▁meydanında	-10001
ан	-10002
▁Təkcə	-10003
▁Sərvətlər	-10004
▁yarısında	-10005
▁müstəqilliyi	-10006
▁meyiti	-10007
məmişdir	-10008
▁müdir	-10009
▁İnsanlar	-10010
▁sektorunda	-10011
66	-10012
Kor	-10013
▁açıldı	-10014
▁fərqlən	-10015
daraq	-10016
məyinə	-10017
▁Siyasət	-10018
eyli	-10019
▁xəbərə	-10020
▁ayından	-10021
▁tərəfdarı	-10022
▁Həl	-10023
▁paket	-10024
▁Vol	-10025
▁rabitə	-10026
▁Kü	-10027
▁vurulub	-10028
atch	-10029
▁Oğlan	-10030
▁evinin	-10031
▁milləti	-10032
▁formasında	-10033
▁fəsil	-10034
▁Konstan	-10035
▁cinayətin	-10036
əddü	-10037
əffər	-10038
▁müharibədən	-10039
▁00	-10040
▁Seçki	-10041
▁bəstəkar	-10042
▁keçirməyə	-10043
▁törətməkdə	-10044
▁gülüş	-10045
▁saxlanılır	-10046
▁Həmid	-10047
▁həddindən	-10048
▁hüquqlarını	-10049
qə	-10050
▁artımı	-10051
▁cəzası	-10052
▁seçilən	-10053
▁idarəsinin	-10054
har	-10055
ill	-10056
əşr	-10057
▁pak	-10058
▁100-	-10059
▁günlərində	-10060
▁dez	-10061
özünə	-10062
▁fəsad	-10063
▁Keçən	-10064
▁elədim	-10065
▁qadını	-10066
Pİ	-10067
▁coş	-10068
▁həvalə	-10069
NS	-10070
▁Ramazan	-10071
▁pozuntu	-10072
▁imtahana	-10073
məmməd	-10074
▁Kreml	-10075
▁forma	-10076
▁siyahısı	-10077
▁Od	-10078
▁2006-	-10079
▁mahiyyəti	-10080
▁sik	-10081
▁sanksiyalar	-10082
lib	-10083
▁lib	-10084
▁çoxal	-10085
▁edilməklə	-10086
▁halına	-10087
▁salan	-10088
ılmamış	-10089
▁Tar	-10090
▁gələni	-10091
▁aparılmış	-10092
▁qismindən	-10093
başı	-10094
▁mərhəmət	-10095
https	-10096
▁Bura	-10097
▁Ob	-10098
▁Ömər	-10099
ləriniz	-10100
▁ucal	-10101
▁ideya	-10102
▁gündür	-10103
▁yadıma	-10104
▁şöbəsinə	-10105
▁cavabları	-10106
şi	-10107
qin	-10108
▁Pat	-10109
▁aktı	-10110
▁kürd	-10111
▁sutkada	-10112
▁götürür	-10113
▁sahibləri	-10114
▁istif	-10115
▁genişlən	-10116
▁dos	-10117
sunuz	-10118
▁sada	-10119
▁müdaxil	-10120
▁şiş	-10121
▁Mem	-10122
▁mənafe	-10123
▁göründüyü	-10124
Müs	-10125
dığın	-10126
▁çıxaraq	-10127
▁rusiyalı	-10128
▁tarixindən	-10129
elli	-10130
▁Hök	-10131
▁əlləri	-10132
▁vəziyyətdən	-10133
▁Müxtəlif	-10134
▁bilersiz	-10135
▁xəstəxanada	-10136
çıx	-10137
dəniz	-10138
▁xeyirxah	-10139
▁Andr	-10140
▁fasil	-10141
▁işsiz	-10142
ladılar	-10143
▁təmsilçisi	-10144
ayla	-10145
▁sahilində	-10146
▁kəsi	-10147
▁Regional	-10148
▁Departament	-10149
▁Mor	-10150
▁konf	-10151
▁toplu	-10152
▁dim	-10153
▁əsərində	-10154
şal	-10155
▁verilmir	-10156
ade	-10157
▁durur	-10158
▁şəhərlərində	-10159
▁Ac	-10160
tral	-10161
▁milyondan	-10162
▁cəbhə	-10163
▁zibil	-10164
▁Sark	-10165
▁oraya	-10166
▁platfor	-10167
▁dilləndi	-10168
▁müraciəti	-10169
▁Müv	-10170
▁götürül	-10171
▁meyv	-10172
▁diaqnoz	-10173
▁AMEA	-10174
▁siviliz	-10175
▁54	-10176
▁Stat	-10177
▁dava	-10178
▁ölkəsi	-10179
▁ba	-10180
alınmaz	-10181
▁Üçüncü	-10182
▁məhsulların	-10183
▁Xəl	-10184
▁etməz	-10185
York	-10186
▁deyərlər	-10187
▁Koronavirus	-10188
▁Moskvanın	-10189
▁yeniyetmə	-10190
LƏR	-10191
əsna	-10192
▁neq	-10193
sident	-10194
▁Musayev	-10195
▁ünvanında	-10196
▁hərrac	-10197
ilasetmə	-10198
▁ərazilərə	-10199
▁müəllimlər	-10200
▁Lim	-10201
▁lüğ	-10202
▁qabağına	-10203
▁sov	-10204
▁Müqəddəs	-10205
▁yanğınsöndür	-10206
▁Vüsal	-10207
▁Bakıdan	-10208
▁verilməsini	-10209
▁düşdüm	-10210
▁satılıq	-10211
▁yeraltı	-10212
▁kəndinin	-10213
▁qardaşım	-10214
▁layihələrin	-10215
▁möc	-10216
▁Park	-10217
▁müəssisələrinə	-10218
▁kər	-10219
▁sərkərdə	-10220
▁sahələrinin	-10221
ronun	-10222
▁Qırmızı	-10223
▁itkilər	-10224
▁Hitler	-10225
▁mənasını	-10226
▁2001-	-10227
▁Qaraq	-10228
▁semin	-10229
▁kiminsə	-10230
▁tarixdən	-10231
▁çəkilmiş	-10232
▁buyur	-10233
▁şərəfinə	-10234
▁1/	-10235
deyə	-10236
▁yır	-10237
dumuzun	-10238
▁Rəhimov	-10239
▁anlayışı	-10240
▁münaqişəsi	-10241
▁İnterPress	-10242
▁va	-10243
▁tamaşa	-10244
dab	-10245
▁Səs	-10246
▁est	-10247
▁varlı	-10248
▁ukrayn	-10249
▁ölümünə	-10250
▁proseslər	-10251
Art	-10252
▁istism	-10253
▁dedikdə	-10254
▁yubiley	-10255
▁oxunuş	-10256
▁qalsın	-10257
▁təqsirli	-10258
küy	-10259
səydi	-10260
▁innov	-10261
▁Şükür	-10262
▁axırda	-10263
▁konsul	-10264
▁peşman	-10265
▁Mübarizə	-10266
▁nəzəriyyə	-10267
▁talan	-10268
▁şəkər	-10269
button	-10270
buttonurl	-10271
iyan	-10272
▁prokurorluq	-10273
biz	-10274
iyazi	-10275
ovdar	-10276
▁olunduğunu	-10277
yeni	-10278
▁arxe	-10279
LƏ	-10280
xoz	-10281
▁yumşaq	-10282
▁pozitiv	-10283
yus	-10284
sünüz	-10285
▁həmiş	-10286
▁məsci	-10287
-2	-10288
▁aydan	-10289
▁Rzayev	-10290
▁kontin	-10291
▁onlarda	-10292
▁enerjisi	-10293
▁Zaur	-10294
▁açmaq	-10295
lanırdı	-10296
▁istədiyini	-10297
▁həddi	-10298
▁kəsib	-10299
▁şahzadə	-10300
▁etməsini	-10301
▁Lavr	-10302
▁zəbt	-10303
▁heyran	-10304
ləndirmə	-10305
əmlə	-10306
▁İkincisi	-10307
▁şərtləri	-10308
Ər	-10309
▁Bi	-10310
▁getsin	-10311
▁əd	-10312
atla	-10313
▁İns	-10314
▁gətirə	-10315
▁qalibi	-10316
▁qaynar	-10317
▁etmədən	-10318
asiyasına	-10319
avanın	-10320
▁eləyib	-10321
▁olduğum	-10322
▁hazırlanıb	-10323
ley	-10324
▁ley	-10325
▁iman	-10326
▁müqabilində	-10327
▁Universitetində	-10328
▁çaş	-10329
▁Sülh	-10330
▁tran	-10331
▁53	-10332
▁Xuda	-10333
onunda	-10334
▁beyin	-10335
▁mərhum	-10336
▁Əminəm	-10337
▁Naxçıvanda	-10338
ulur	-10339
Ümum	-10340
İndi	-10341
▁sənədi	-10342
▁Azerbaycan	-10343
▁qurub	-10344
▁sənayes	-10345
▁təsviri	-10346
▁yayılmış	-10347
▁AZƏR	-10348
▁Sədr	-10349
▁rüsum	-10350
▁illiyi	-10351
▁gəldiyini	-10352
iram	-10353
▁Anad	-10354
▁gener	-10355
▁İnc	-10356
▁kafir	-10357
▁vuran	-10358
▁amerikalı	-10359
▁geo	-10360
▁Xətalar	-10361
▁Rəq	-10362
▁Təx	-10363
▁Kişi	-10364
▁sərgi	-10365
▁redaktoru	-10366
sm	-10367
qut	-10368
yet	-10369
▁))	-10370
▁Brüs	-10371
▁57	-10372
duqları	-10373
▁Qrupunun	-10374
▁edilməyib	-10375
▁seçkiləri	-10376
▁xidmətlərin	-10377
▁xanımı	-10378
▁Trampın	-10379
▁Ara	-10380
▁Kir	-10381
▁Dərb	-10382
▁Könül	-10383
▁iqtidar	-10384
▁paytaxtın	-10385
▁Zəhmət	-10386
▁Doğrudan	-10387
▁müəyyənləşdirilməsi	-10388
▁Atam	-10389
▁dart	-10390
▁diləy	-10391
▁Futbol	-10392
Həmçinin	-10393
▁telekanal	-10394
▁gündəmə	-10395
▁Moskvaya	-10396
▁ortasında	-10397
▁salınıb	-10398
▁səbəbini	-10399
▁maqn	-10400
▁Əfən	-10401
▁səfərdə	-10402
▁Lev	-10403
Azərbaycanda	-10404
▁dağlar	-10405
▁qazanmaq	-10406
▁nəyin	-10407
▁pulun	-10408
▁dənizə	-10409
▁Gəncədə	-10410
▁müqaviləsinin	-10411
▁mənfə	-10412
▁fəlakət	-10413
▁Sonradan	-10414
▁müalicəsi	-10415
▁qazın	-10416
▁çevik	-10417
▁atmosfer	-10418
▁ziddiyyət	-10419
arlı	-10420
idin	-10421
▁caz	-10422
mamışam	-10423
▁Musi	-10424
dem	-10425
▁deye	-10426
▁bilim	-10427
larıdır	-10428
▁qiymətləndirilir	-10429
ion	-10430
▁6.	-10431
irəs	-10432
▁olduğumuz	-10433
▁uzaqlaşdır	-10434
▁Rə	-10435
▁sinf	-10436
▁yağınt	-10437
▁maraqlandır	-10438
▁Yevlax	-10439
▁qətiyyən	-10440
EC	-10441
Qan	-10442
ağz	-10443
▁tələbələr	-10444
▁Tibb	-10445
▁bizimlə	-10446
▁qruplar	-10447
▁tutulması	-10448
okal	-10449
▁silahı	-10450
▁şans	-10451
likopter	-10452
▁us	-10453
blem	-10454
▁qəddar	-10455
▁gedirəm	-10456
▁58	-10457
▁nat	-10458
ota	-10459
şağı	-10460
▁öldürmə	-10461
▁razılığı	-10462
rit	-10463
▁fay	-10464
▁yardımı	-10465
▁dayanıqlı	-10466
▁40-	-10467
▁halların	-10468
▁təhlükəsizliyinin	-10469
▁qadir	-10470
▁0-	-10471
axılış	-10472
▁sevən	-10473
▁istilik	-10474
▁bilmərik	-10475
▁təsadüfi	-10476
▁səviyyəsinin	-10477
▁yaradıcılığı	-10478
▁7,	-10479
obu	-10480
▁istefa	-10481
▁yönəlmiş	-10482
▁Da	-10483
aran	-10484
▁arasından	-10485
▁Məhkəməsinə	-10486
▁Prokurorluğunda	-10487
emə	-10488
▁bacarı	-10489
▁vəziyyətinin	-10490
▁Döyüş	-10491
▁Zaman	-10492
▁başlamaq	-10493
linə	-10494
Həsən	-10495
▁binasının	-10496
▁bölgələrdə	-10497
▁inkişafının	-10498
biya	-10499
▁Qus	-10500
▁torpağın	-10501
▁gətirdiyi	-10502
uzadə	-10503
▁rep	-10504
▁yaşayıb	-10505
eksik	-10506
▁63	-10507
▁deş	-10508
▁zəiflə	-10509
▁Radi	-10510
▁2004-	-10511
▁Əmlak	-10512
▁Göstər	-10513
▁nişanlı	-10514
▁sevirəm	-10515
▁dəstələri	-10516
▁artilleriya	-10517
İm	-10518
ruh	-10519
inizə	-10520
▁kimdir	-10521
▁yenilən	-10522
Ne	-10523
▁işığı	-10524
EFA	-10525
Ukrayna	-10526
▁şirkətləri	-10527
mark	-10528
Şərq	-10529
▁Ankara	-10530
▁Mehman	-10531
Məmmədov	-10532
▁Ticarət	-10533
▁məntiqi	-10534
▁Tarixi	-10535
▁sözünə	-10536
▁sx	-10537
▁güləş	-10538
▁popul	-10539
▁birj	-10540
▁başlamışdır	-10541
▁Möh	-10542
▁sifət	-10543
liklərində	-10544
amaz	-10545
▁danışıqların	-10546
adçı	-10547
tinq	-10548
▁xalqlarının	-10549
▁planlaşdırılır	-10550
▁Qriq	-10551
▁arzulayıram	-10552
▁Kiş	-10553
▁yeyib	-10554
▁Pul	-10555
▁vətəndaşın	-10556
▁haldır	-10557
▁təkmilləşdirilməsi	-10558
▁müsahibə	-10559
▁üzüm	-10560
▁Zahid	-10561
▁Ətraf	-10562
▁qəsəbə	-10563
ırdım	-10564
▁Şəkil	-10565
▁ərizəsi	-10566
▁Əliyevanın	-10567
▁gücünü	-10568
▁praktiki	-10569
▁sap	-10570
▁çatdırılması	-10571
şar	-10572
.000	-10573
egram	-10574
▁eşidir	-10575
▁keçməsi	-10576
▁əsərlərində	-10577
65	-10578
ayiq	-10579
▁məhsulu	-10580
▁Cümhuriyyəti	-10581
▁Şübh	-10582
▁Növbəti	-10583
▁çıxarılan	-10584
▁bildirmişdi	-10585
çın	-10586
▁qr	-10587
▁çadır	-10588
▁fənn	-10589
▁qayıtdı	-10590
əvəz	-10591
▁180	-10592
▁nisbət	-10593
aşı	-10594
▁Co	-10595
▁hamımız	-10596
▁müstəsna	-10597
▁Məclisinin	-10598
▁nəticələrə	-10599
▁müstəqilliyini	-10600
▁kəlmə	-10601
▁Robert	-10602
▁vəsaitin	-10603
▁Pen	-10604
iyasından	-10605
▁cavabını	-10606
▁(5	-10607
▁zalım	-10608
▁turizmin	-10609
▁Haq	-10610
diler	-10611
polkovnik	-10612
▁qaytarılması	-10613
▁Nis	-10614
▁İşğal	-10615
▁təsirini	-10616
▁inkişafını	-10617
minin	-10618
▁Əksinə	-10619
▁görünüş	-10620
▁məhəllə	-10621
▁Fransada	-10622
rov	-10623
ediy	-10624
▁188	-10625
▁Neçə	-10626
▁danışdı	-10627
▁Saz	-10628
▁Müharibə	-10629
▁olmasından	-10630
▁möt	-10631
▁qoymur	-10632
▁Bunlardan	-10633
▁tac	-10634
▁Ölüm	-10635
▁müddətli	-10636
▁məhkəmədə	-10637
▁Ermənistanı	-10638
▁pıç	-10639
▁Yerli	-10640
▁kəndə	-10641
▁Vilayət	-10642
yat	-10643
▁damar	-10644
▁qrupun	-10645
▁anasının	-10646
duqda	-10647
▁məsafə	-10648
▁yetirib	-10649
laşdırılmış	-10650
▁PKK	-10651
iliyinin	-10652
▁sözlərin	-10653
▁Əfqanıstan	-10654
▁xəsarətləri	-10655
ızıl	-10656
▁kas	-10657
▁Rauf	-10658
▁yazar	-10659
əsindəki	-10660
▁41	-10661
▁toplaş	-10662
ıldıqdan	-10663
▁imzalam	-10664
▁layiqli	-10665
▁gətirilən	-10666
▁Nəzarət	-10667
▁təhsilin	-10668
▁nəticələrinə	-10669
aciət	-10670
▁Hor	-10671
▁Kipr	-10672
▁açan	-10673
▁əsgəri	-10674
▁götürdü	-10675
tub	-10676
layıcı	-10677
▁tarixini	-10678
▁törədildikdə	-10679
orun	-10680
▁Bat	-10681
▁Hakimiyyəti	-10682
▁yaşadıqları	-10683
bək	-10684
▁AB	-10685
▁ağacı	-10686
▁eləyir	-10687
▁tərpən	-10688
▁vurmaq	-10689
oç	-10690
aft	-10691
▁ris	-10692
məddin	-10693
▁qərib	-10694
▁düşəcək	-10695
▁həbsxan	-10696
▁İK	-10697
irli	-10698
▁səbr	-10699
ılmasından	-10700
adənin	-10701
kinlik	-10702
▁sizdən	-10703
▁Mirzəyev	-10704
▁yarımçıq	-10705
▁ermənilərə	-10706
danı	-10707
▁qabaqcıl	-10708
▁Vas	-10709
ambıq	-10710
▁quruluşu	-10711
▁Xəstəxanasına	-10712
▁Adı	-10713
▁Qab	-10714
▁cərəyan	-10715
▁bunlardan	-10716
▁məktəbinin	-10717
▁iqtisadiyyatın	-10718
ASS	-10719
▁edənlərin	-10720
4)	-10721
▁hic	-10722
▁rüb	-10723
▁Həmişə	-10724
▁Diaspor	-10725
▁Arzu	-10726
▁inci	-10727
▁olum	-10728
▁İsmayıllı	-10729
xu	-10730
▁ita	-10731
əyyar	-10732
▁lent	-10733
▁dum	-10734
▁sədrliyi	-10735
▁qətiyyətlə	-10736
▁ətrafındakı	-10737
▁mənimsə	-10738
▁dezinf	-10739
▁partiyanın	-10740
ümlü	-10741
▁şal	-10742
atdan	-10743
▁dəyərində	-10744
▁xatırladır	-10745
▁müharibəsinin	-10746
▁bərqərar	-10747
▁kitabını	-10748
▁vəzifələri	-10749
▁məktəblərdə	-10750
ışın	-10751
oslav	-10752
empionu	-10753
▁qəhrəmanlıq	-10754
▁Boş	-10755
▁Qay	-10756
görüş	-10757
▁epid	-10758
▁Zaqafqaz	-10759
▁Per	-10760
▁Rey	-10761
▁pulunu	-10762
▁hüququnu	-10763
aqan	-10764
▁tərəddü	-10765
▁xəzin	-10766
aktiv	-10767
▁tapşırığı	-10768
enn	-10769
▁hərdən	-10770
▁kollec	-10771
▁yerlər	-10772
▁sıradan	-10773
▁sərhədləri	-10774
həm	-10775
▁1920-	-10776
duğum	-10777
hesab	-10778
▁gizlən	-10779
▁siyasətinə	-10780
▁Bin	-10781
▁əti	-10782
oyunlu	-10783
report	-10784
▁Türkməni	-10785
▁nümunəsi	-10786
▁vəsiyyət	-10787
▁hazırlanan	-10788
▁müf	-10789
Sonra	-10790
▁asanlıqla	-10791
▁briq	-10792
▁olim	-10793
▁hazırlayıb	-10794
▁dəyişdirilməsi	-10795
▁əhli	-10796
lilərin	-10797
▁təchizatı	-10798
icat	-10799
▁vir	-10800
▁danışığı	-10801
▁dediyinə	-10802
çisinin	-10803
göl	-10804
▁250	-10805
▁hamıya	-10806
▁dələduz	-10807
▁Qafqazın	-10808
▁xoşbəxtlik	-10809
▁Düşmən	-10810
▁Televiz	-10811
▁Kər	-10812
youtube	-10813
▁patent	-10814
▁virusa	-10815
sik	-10816
eşik	-10817
▁Çay	-10818
▁gəliş	-10819
▁yarandı	-10820
▁mərkəzinə	-10821
▁açıqlamada	-10822
cıq	-10823
▁def	-10824
▁Zülf	-10825
▁festiv	-10826
▁komandir	-10827
▁əllərini	-10828
▁xalqları	-10829
irəsalınmaz	-10830
Hacı	-10831
▁Söy	-10832
▁rəvayət	-10833
▁məbləğdə	-10834
▁2003-	-10835
▁SOCAR	-10836
▁düzən	-10837
ümüzü	-10838
▁məruzə	-10839
▁Elşən	-10840
▁Yaşar	-10841
iristan	-10842
Bur	-10843
cuq	-10844
▁Ül	-10845
▁desin	-10846
▁Sakit	-10847
▁vəzifəyə	-10848
▁söhbətlər	-10849
Gənc	-10850
▁Çal	-10851
▁oğurluq	-10852
▁cəmiyyətinin	-10853
▁to	-10854
▁refer	-10855
▁sənəti	-10856
▁Göründüyü	-10857
▁orqanının	-10858
▁söndürülüb	-10859
▁tarixlərində	-10860
▁1995-	-10861
▁Gərək	-10862
▁Qərbin	-10863
▁vasitələrin	-10864
▁bəli	-10865
▁Yüz	-10866
▁Tural	-10867
▁tapılıb	-10868
▁təsirli	-10869
▁dayandırılması	-10870
Mənim	-10871
▁Rasim	-10872
▁çıxanda	-10873
▁Əsgərov	-10874
cab	-10875
▁aksiya	-10876
▁şübhələr	-10877
▁verməlidir	-10878
▁Mari	-10879
▁odlu	-10880
▁alçaq	-10881
istanın	-10882
▁Avstriya	-10883
▁alınmaqla	-10884
lanı	-10885
▁türklər	-10886
dili	-10887
▁aer	-10888
▁Suriyada	-10889
▁çaxacağı	-10890
37	-10891
ekvat	-10892
?-	-10893
▁bilirdim	-10894
▁oc	-10895
▁hem	-10896
▁dövrə	-10897
▁olmamış	-10898
▁müəllifin	-10899
üq	-10900
ərbəl	-10901
mədəni	-10902
▁dağıdı	-10903
ümayəndə	-10904
▁bilmirdim	-10905
.”	-10906
ende	-10907
nində	-10908
▁komitə	-10909
▁bildirmək	-10910
▁Təsərrüfatı	-10911
▁məmlək	-10912
mamalıdır	-10913
ələrindən	-10914
▁kims	-10915
▁Şahbaz	-10916
▁evlərinə	-10917
▁qiymətləndirilməsi	-10918
imə	-10919
mbud	-10920
▁oğlunu	-10921
▁satın	-10922
▁helikopter	-10923
udə	-10924
▁dəxi	-10925
▁jurn	-10926
▁öyrət	-10927
▁işçisi	-10928
▁əminəm	-10929
▁yiyələn	-10930
▁sürücüsü	-10931
malıdırlar	-10932
▁yerlərə	-10933
▁tələbinə	-10934
ıma	-10935
edic	-10936
▁2000	-10937
▁kafed	-10938
▁şəhadət	-10939
▁64	-10940
▁içi	-10941
edilməz	-10942
▁sərhədi	-10943
▁Almaniyada	-10944
üc	-10945
yox	-10946
▁sül	-10947
▁tükən	-10948
▁mübarizəyə	-10949
▁parlamentin	-10950
▁benz	-10951
▁islahat	-10952
issert	-10953
dığınız	-10954
▁oxuya	-10955
▁gəldilər	-10956
▁qurumların	-10957
▁günahlandır	-10958
▁əngəl	-10959
▁Zəngilan	-10960
Gün	-10961
▁Cəlilabad	-10962
▁müddətdir	-10963
▁Amerikanın	-10964
Tel	-10965
anim	-10966
▁("	-10967
▁oda	-10968
▁muxtar	-10969
▁Bəxtiyar	-10970
oj	-10971
ener	-10972
▁şirkətlər	-10973
▁söyüş	-10974
▁qazanc	-10975
▁təşkilatlarının	-10976
udum	-10977
▁aşağıda	-10978
▁edildikdən	-10979
▁Ordu	-10980
▁İman	-10981
▁tapır	-10982
▁şükür	-10983
ütb	-10984
▁cu	-10985
▁çıxara	-10986
-1	-10987
▁Qədir	-10988
▁Deyəsən	-10989
▁analitik	-10990
▁AZN	-10991
▁Eyvaz	-10992
▁mükafatı	-10993
▁Dol	-10994
▁Kompl	-10995
▁xalqını	-10996
▁Millətlər	-10997
▁Qarabağdakı	-10998
▁Pdf	-10999
▁hamının	-11000
▁saytına	-11001
▁rəsmiləri	-11002
asınca	-11003
dılmış	-11004
▁ilham	-11005
▁inteqrasiya	-11006
gun	-11007
ranı	-11008
▁mus	-11009
▁Torpaq	-11010
▁başladım	-11011
▁çempionu	-11012
▁məxsusdur	-11013
rtəsi	-11014
▁araşdırılması	-11015
iler	-11016
▁2-3	-11017
▁nisbi	-11018
▁ölkəsinin	-11019
▁Qərargahdan	-11020
eyrə	-11021
▁bahalı	-11022
▁edilməsində	-11023
▁İnqilab	-11024
▁götürülən	-11025
ow	-11026
evin	-11027
▁Dədə	-11028
tarı	-11029
kitab	-11030
▁dolayı	-11031
▁Dövləti	-11032
▁mel	-11033
▁nom	-11034
▁Avqust	-11035
▁neqativ	-11036
▁demokrat	-11037
uşa	-11038
çaq	-11039
▁əməkdaşlığa	-11040
watch	-11041
▁hörmətli	-11042
orf	-11043
▁Kaş	-11044
▁Tac	-11045
▁lob	-11046
istlər	-11047
lanmaq	-11048
ner	-11049
▁qadağa	-11050
▁Cəmiyyətinin	-11051
▁Hen	-11052
▁mur	-11053
▁bağlanmış	-11054
▁görüntüləri	-11055
ehli	-11056
▁hədiyy	-11057
▁məhbus	-11058
▁Qırğızı	-11059
▁dayanan	-11060
olit	-11061
çunun	-11062
▁yanın	-11063
▁qiymətə	-11064
▁milyonlarla	-11065
▁yaradılmışdır	-11066
▁etmələri	-11067
▁hür	-11068
▁gəlirlər	-11069
▁taksi	-11070
▁antrop	-11071
dinin	-11072
▁öndər	-11073
▁London	-11074
▁ədəbiyyatının	-11075
çiyə	-11076
kom	-11077
əyinə	-11078
▁döyüşə	-11079
);	-11080
▁AX	-11081
ənlərin	-11082
ст	-11083
▁-—	-11084
▁başsağlığı	-11085
.1-	-11086
sur	-11087
▁AL	-11088
▁Ama	-11089
▁mütəxəssislər	-11090
▁niye	-11091
▁ahəng	-11092
▁etdiklərini	-11093
▁67	-11094
ügedən	-11095
ölümündən	-11096
▁hörmətlə	-11097
▁Kos	-11098
▁Yek	-11099
▁vul	-11100
şünaslıq	-11101
▁sualına	-11102
▁mətbuatda	-11103
▁qoyulması	-11104
▁ifadəsində	-11105
▁vəziyyətlə	-11106
▁orqanlarında	-11107
▁Səbail	-11108
▁qızının	-11109
▁rayonda	-11110
▁toplayıb	-11111
▁gil	-11112
▁Qəbələ	-11113
▁Çempion	-11114
▁seçkilərdə	-11115
▁yaratmağa	-11116
▁link	-11117
▁başlandı	-11118
***	-11119
aşə	-11120
▁doğum	-11121
▁sevir	-11122
▁Bankın	-11123
məmək	-11124
▁Qeyri	-11125
ndə	-11126
▁nəşri	-11127
▁şamil	-11128
▁bet	-11129
mirlər	-11130
Or	-11131
th	-11132
xüs	-11133
bert	-11134
▁goz	-11135
▁əlyaz	-11136
Sər	-11137
alığı	-11138
salam	-11139
ümüzə	-11140
▁getdiyi	-11141
▁görüşündə	-11142
arsel	-11143
onlar	-11144
▁mühafizəsi	-11145
▁verməy	-11146
▁göv	-11147
▁Əmr	-11148
atürk	-11149
▁Masallı	-11150
▁dediyim	-11151
▁çəkilir	-11152
KO	-11153
ora	-11154
▁halal	-11155
▁Sənaye	-11156
▁təəssür	-11157
▁mehman	-11158
▁olunmayıb	-11159
daxili	-11160
▁Əlizadə	-11161
asiyaların	-11162
▁yetirilməsi	-11163
▁memar	-11164
▁vurğulan	-11165
qurma	-11166
▁plen	-11167
▁qoyduğu	-11168
▁qalmayıb	-11169
məmişdi	-11170
▁Suraxanı	-11171
▁sərəncamı	-11172
▁Fə	-11173
isin	-11174
▁Ger	-11175
alında	-11176
▁Qoşun	-11177
▁qapısı	-11178
▁verməli	-11179
▁mübahisəli	-11180
▁ömrü	-11181
▁Namiq	-11182
▁müzakirəyə	-11183
▁düşmüşdü	-11184
▁koronavirusla	-11185
ÜR	-11186
▁sənədin	-11187
▁digərləri	-11188
▁göndərdiyi	-11189
ləsin	-11190
▁hazırlığı	-11191
▁yaxşılaşdırılması	-11192
▁Bas	-11193
▁UEFA	-11194
▁Salyan	-11195
▁vəhşi	-11196
▁salınması	-11197
▁prezidentinin	-11198
▁avadanlıq	-11199
▁jurnalistlərə	-11200
▁aya	-11201
▁savad	-11202
▁Oktyabr	-11203
▁kimidir	-11204
36	-11205
örf	-11206
▁açar	-11207
▁qabaqcadan	-11208
▁Rəy	-11209
Digər	-11210
▁qətli	-11211
▁olursa	-11212
▁bölünür	-11213
▁sənayesi	-11214
▁altındadır	-11215
ormal	-11216
▁icar	-11217
iləşdiril	-11218
▁qorunub	-11219
ərrah	-11220
▁paşa	-11221
▁otağa	-11222
▁təcavüzkar	-11223
▁bib	-11224
üblər	-11225
▁Fikir	-11226
▁Əbdül	-11227
▁imzalanmış	-11228
Qul	-11229
▁hesablam	-11230
▁zorakılıq	-11231
▁tələblərini	-11232
▁öyrənilməsi	-11233
▁zənn	-11234
nəqliyyat	-11235
ен	-11236
▁efir	-11237
▁kino	-11238
▁demiş	-11239
▁almışdı	-11240
▁Mühafizə	-11241
aks	-11242
adece	-11243
▁çıxardı	-11244
▁Əfəndiyev	-11245
ƏBİB	-11246
▁Alim	-11247
▁Bolq	-11248
ədəbəy	-11249
▁Prosessual	-11250
dav	-11251
ğunu	-11252
Cənub	-11253
▁sürt	-11254
▁gözəllik	-11255
▁yaranmasına	-11256
şu	-11257
axar	-11258
▁qüsur	-11259
unundan	-11260
Sumqayıt	-11261
▁Qubadlı	-11262
Gürcü	-11263
▁eksp	-11264
▁mənəm	-11265
▁fürsət	-11266
▁mötəbər	-11267
▁Kitabxan	-11268
▁bağlayıb	-11269
▁prosesini	-11270
▁apa	-11271
▁Dəhliz	-11272
▁baxdım	-11273
▁beləliklə	-11274
sh	-11275
day	-11276
▁qurbanı	-11277
▁yetirmək	-11278
▁sora	-11279
▁um	-11280
əsiniz	-11281
▁rəngi	-11282
▁ürəyim	-11283
▁neftinin	-11284
▁qalmışdır	-11285
,-	-11286
otu	-11287
▁başlamışdı	-11288
▁təqv	-11289
▁xalç	-11290
▁Vergi	-11291
▁pozan	-11292
Twitter	-11293
▁çatacaq	-11294
▁59	-11295
iyyet	-11296
luqdan	-11297
▁Özünü	-11298
▁etdikdə	-11299
▁göstərirlər	-11300
▁bəhr	-11301
▁polisi	-11302
▁zəncir	-11303
▁diqqətli	-11304
İH	-11305
yönlü	-11306
▁bölgələrində	-11307
çar	-11308
ənci	-11309
▁arayış	-11310
▁şifahi	-11311
▁Brüssel	-11312
▁yararsız	-11313
▁ərazisinin	-11314
osp	-11315
▁ifşa	-11316
siyanı	-11317
▁qiymətinin	-11318
▁kaz	-11319
▁xalqlar	-11320
ovul	-11321
▁bankın	-11322
▁Şərqdə	-11323
▁Doğrudur	-11324
▁yetirilib	-11325
əntiq	-11326
▁tanınır	-11327
obel	-11328
▁Çex	-11329
▁Nazirliyin	-11330
▁maddələrin	-11331
Nə	-11332
▁infl	-11333
▁yadda	-11334
▁artmasına	-11335
▁Maraqlıdır	-11336
▁Yet	-11337
▁əyani	-11338
▁ayrılır	-11339
▁görməyə	-11340
▁xatırladıb	-11341
▁Sığ	-11342
▁Bankı	-11343
▁göndərilən	-11344
▁tədbirlərinin	-11345
▁Səm	-11346
oğrul	-11347
usundan	-11348
▁düzəldil	-11349
▁məsafədə	-11350
Avropa	-11351
▁Bələd	-11352
▁cəsəd	-11353
▁dinləy	-11354
▁sayına	-11355
Gör	-11356
▁Rav	-11357
▁baza	-11358
maqdadır	-11359
▁proqnozlaşdır	-11360
TV	-11361
▁Qafar	-11362
▁bitkilər	-11363
▁qrupundan	-11364
Yan	-11365
▁be	-11366
▁den	-11367
▁canı	-11368
▁gələc	-11369
▁bazarda	-11370
▁İq	-11371
▁fabr	-11372
▁gedək	-11373
▁Deputat	-11374
▁deyillər	-11375
▁müəllimlərin	-11376
ont	-11377
▁Miş	-11378
agram	-11379
▁oynadı	-11380
▁Ermənistandan	-11381
sem	-11382
▁Mes	-11383
▁çıl	-11384
▁məcmu	-11385
▁tarixin	-11386
▁azərbaycanlılara	-11387
üyür	-11388
▁dramatur	-11389
▁körpə	-11390
▁addımı	-11391
▁irəlilə	-11392
▁reallaşdır	-11393
▁zamanlarda	-11394
▁gəliblər	-11395
▁Liqasının	-11396
▁sığınacaq	-11397
▁veter	-11398
▁əyal	-11399
▁demirəm	-11400
Fran	-11401
▁Boy	-11402
landiy	-11403
▁Mixail	-11404
▁Salman	-11405
▁prosesin	-11406
▁iştirakçısı	-11407
▁Tr	-11408
▁Quş	-11409
▁Əraz	-11410
▁işçilərinin	-11411
▁mol	-11412
▁büdcəsinin	-11413
38	-11414
həti	-11415
əllim	-11416
▁alındı	-11417
▁karyer	-11418
▁deyərək	-11419
▁məzmunu	-11420
▁Əvvəllər	-11421
berq	-11422
▁qalar	-11423
▁verənlər	-11424
els	-11425
▁Ov	-11426
akov	-11427
▁700	-11428
▁avrop	-11429
▁gözünü	-11430
▁deyəcək	-11431
dış	-11432
▁burn	-11433
▁əməkhaqq	-11434
▁imtahanda	-11435
▁Arbit	-11436
▁otağı	-11437
ms	-11438
▁edirsə	-11439
▁qərarını	-11440
imul	-11441
▁Şab	-11442
▁oğru	-11443
▁spirt	-11444
▁Cor	-11445
əyinin	-11446
əmiz	-11447
▁şaxt	-11448
▁Elvin	-11449
▁otaqda	-11450
▁simvol	-11451
Qər	-11452
ami	-11453
vard	-11454
▁qabağa	-11455
▁Ölkənin	-11456
▁əvəzində	-11457
▁stək	-11458
▁ziya	-11459
▁kitabda	-11460
▁ailəsinə	-11461
▁azalıb	-11462
▁Cavanşir	-11463
OR	-11464
ənən	-11465
ardım	-11466
İnsan	-11467
▁içki	-11468
▁Bağırov	-11469
▁Paytaxt	-11470
▁səsləri	-11471
▁qəbiristan	-11472
əcə	-11473
ight	-11474
kiləri	-11475
▁Qərib	-11476
▁icraçı	-11477
▁baxıram	-11478
▁Qida	-11479
▁atılıb	-11480
▁günahsız	-11481
▁Ərdoğanın	-11482
The	-11483
iliyinə	-11484
▁alimlər	-11485
▁Şuranın	-11486
▁Görüşdə	-11487
▁Səfərov	-11488
▁çəkdiyi	-11489
▁müşaviri	-11490
▁Bizi	-11491
▁Bazar	-11492
▁Fərid	-11493
▁ipoteka	-11494
▁rejimin	-11495
▁tanıyır	-11496
▁işləməyə	-11497
şin	-11498
▁Nəb	-11499
▁dəyir	-11500
arkeş	-11501
▁mələk	-11502
▁demişəm	-11503
▁xarakterizə	-11504
rəh	-11505
hats	-11506
▁Den	-11507
▁ayağı	-11508
▁xaricdən	-11509
İZ	-11510
axşı	-11511
▁əlç	-11512
▁özgə	-11513
▁geriyə	-11514
▁klinik	-11515
▁hakimiyyətin	-11516
lenş	-11517
▁verilməlidir	-11518
zit	-11519
eden	-11520
lili	-11521
stagram	-11522
▁dayandı	-11523
▁əşyaları	-11524
▁etməyəcək	-11525
▁məskunlaş	-11526
dimiz	-11527
▁qarn	-11528
▁tələf	-11529
▁istəyirdim	-11530
ekul	-11531
▁1997-	-11532
▁mühacir	-11533
▁hadisədən	-11534
isas	-11535
▁qam	-11536
▁qısam	-11537
▁başçısına	-11538
rım	-11539
▁nec	-11540
▁atış	-11541
▁hirs	-11542
▁reytinq	-11543
▁götürmək	-11544
əyən	-11545
▁sirr	-11546
▁Azadlıq	-11547
▁ud	-11548
ekabr	-11549
▁Mahir	-11550
▁məbəd	-11551
▁zərif	-11552
▁Paşayev	-11553
▁nəşriyyat	-11554
TX	-11555
▁Göyçay	-11556
▁Rusiyanı	-11557
▁nazirlik	-11558
şə	-11559
erlər	-11560
▁nəzdində	-11561
kat	-11562
▁2019	-11563
lenşpi	-11564
▁qruplaş	-11565
▁yumurta	-11566
▁siyasətin	-11567
▁sem	-11568
▁vəsat	-11569
▁Brazil	-11570
ümdə	-11571
ənnəm	-11572
▁ayaqq	-11573
▁bitirib	-11574
▁suda	-11575
▁Əbülf	-11576
▁dondur	-11577
▁investis	-11578
Mət	-11579
▁etmişdilər	-11580
mad	-11581
▁qüdrətli	-11582
▁şəhərləri	-11583
▁məntəqələri	-11584
▁öldürül	-11585
▁ag	-11586
lakı	-11587
▁mini	-11588
▁Axtar	-11589
▁Müşfiq	-11590
▁soruşur	-11591
ləndirici	-11592
▁7.	-11593
ikin	-11594
iyir	-11595
▁Ora	-11596
▁Ömr	-11597
akılı	-11598
mənəvi	-11599
▁boşan	-11600
▁hidro	-11601
▁saxlayan	-11602
▁komandanı	-11603
DƏ	-11604
▁boşal	-11605
▁səhnə	-11606
aət	-11607
Çox	-11608
azılı	-11609
▁otel	-11610
▁eksper	-11611
▁dəyişkən	-11612
▁komissiya	-11613
illər	-11614
▁Bircə	-11615
▁Fazil	-11616
▁şeirlər	-11617
▁dostları	-11618
▁maraqlarını	-11619
▁frak	-11620
▁Anton	-11621
▁vilayətinin	-11622
İqtis	-11623
▁məqalə	-11624
gahı	-11625
▁rəftar	-11626
▁sevimli	-11627
▁qadına	-11628
▁gəlmişəm	-11629
▁arxasınca	-11630
▁xarakteri	-11631
▁avtomobillərin	-11632
çəl	-11633
Neftçi	-11634
▁əmanət	-11635
ləşdirir	-11636
▁dövrünə	-11637
▁Mərkəzində	-11638
31	-11639
▁Ulenşpi	-11640
▁qabiliyyət	-11641
▁viz	-11642
▁dahi	-11643
▁gəlsə	-11644
▁yollarda	-11645
▁müharibəsindən	-11646
▁QSC	-11647
▁misr	-11648
▁Afrik	-11649
▁super	-11650
85	-11651
qəb	-11652
▁görəcək	-11653
Dağ	-11654
▁söyləmək	-11655
▁aparıblar	-11656
▁zəminində	-11657
məmişəm	-11658
▁məşqçi	-11659
▁təzədən	-11660
▁hissəsidir	-11661
▁mövcudluğu	-11662
▁kompensasiya	-11663
şamı	-11664
▁kafe	-11665
▁dünyası	-11666
▁ailəsinin	-11667
silə	-11668
▁Vəli	-11669
▁alıcı	-11670
▁yaşayırlar	-11671
?!	-11672
haq	-11673
qum	-11674
▁Mo	-11675
stik	-11676
▁Cen	-11677
▁Kommunist	-11678
Xəzər	-11679
▁Krım	-11680
▁Elşad	-11681
▁sarsı	-11682
▁Ərazi	-11683
▁faktor	-11684
▁dünyagörüş	-11685
usuz	-11686
▁Həş	-11687
ağımız	-11688
▁sakinlərin	-11689
zad	-11690
aspi	-11691
▁qazı	-11692
▁situ	-11693
▁malların	-11694
▁pozulmasına	-11695
▁Na	-11696
▁immun	-11697
▁obyekti	-11698
▁Ümummilli	-11699
▁deyirdilər	-11700
▁üzərindəki	-11701
32	-11702
34	-11703
▁sıç	-11704
▁gözlər	-11705
▁qaydası	-11706
▁qurultay	-11707
▁suallarını	-11708
EV	-11709
▁dəb	-11710
ilərlə	-11711
▁canlandır	-11712
▁kənarında	-11713
▁məsələlərdə	-11714
çilərə	-11715
▁Forum	-11716
▁normadan	-11717
DM	-11718
Bel	-11719
▁ez	-11720
avər	-11721
▁xatırlat	-11722
▁Pap	-11723
▁ağzına	-11724
▁tələbələrin	-11725
▁yaranmışdır	-11726
▁800	-11727
▁Şamil	-11728
▁yaxşıdı	-11729
▁Puş	-11730
ametr	-11731
▁dustaq	-11732
▁çağırdı	-11733
xanı	-11734
▁Noyabr	-11735
▁stimul	-11736
▁ayrılmış	-11737
▁tərəfdaşlıq	-11738
Dİ	-11739
əzz	-11740
▁maska	-11741
▁etmədi	-11742
▁çirkin	-11743
▁köçürül	-11744
▁görülməsi	-11745
▁hele	-11746
▁xala	-11747
əfərrü	-11748
▁Səfir	-11749
▁təhlükəsizliyini	-11750
▁əsn	-11751
canlı	-11752
▁qutu	-11753
▁imzalanıb	-11754
otel	-11755
Molla	-11756
▁quyu	-11757
▁yeyir	-11758
▁ehtiva	-11759
▁Mübariz	-11760
▁Sənəd	-11761
▁sahələr	-11762
▁yanından	-11763
ayaraq	-11764
ılmağa	-11765
▁sh	-11766
▁Van	-11767
▁Dadaş	-11768
▁serial	-11769
▁yoxlama	-11770
▁qıza	-11771
▁sahəyə	-11772
▁Hüquqları	-11773
▁qeydiyyatı	-11774
▁araşdırılır	-11775
atoru	-11776
emyer	-11777
▁əbəd	-11778
▁çərşən	-11779
▁nəticələrini	-11780
tmək	-11781
▁imperator	-11782
▁yaradacaq	-11783
▁İdarəsində	-11784
▁faktları	-11785
▁qışq	-11786
▁roman	-11787
▁restoran	-11788
▁bilmədiyi	-11789
▁reys	-11790
▁sosi	-11791
undakı	-11792
▁uşağa	-11793
▁verdiyimiz	-11794
▁ilah	-11795
▁süfr	-11796
▁önünə	-11797
▁nömrəsi	-11798
▁tikilmiş	-11799
▁Jurnalist	-11800
▁sonlarında	-11801
▁mövqelərini	-11802
▁istəyirsiniz	-11803
▁öyrənil	-11804
▁operator	-11805
▁nədənsə	-11806
▁sektoru	-11807
▁Birincisi	-11808
▁Vik	-11809
▁ağacların	-11810
▁erməniləri	-11811
▁qurumlarının	-11812
imov	-11813
Əmək	-11814
▁Alt	-11815
söhbət	-11816
▁torpaqlarını	-11817
çular	-11818
▁yaxsi	-11819
alaşdır	-11820
▁ül	-11821
▁diri	-11822
▁muğam	-11823
▁təzahür	-11824
▁şərtlər	-11825
▁görüləcək	-11826
yaya	-11827
iyini	-11828
▁qurd	-11829
▁nəticəsidir	-11830
qızı	-11831
məyim	-11832
▁Məlumat	-11833
▁etdirib	-11834
kel	-11835
▁Abit	-11836
laması	-11837
▁norma	-11838
▁axşamı	-11839
▁briqada	-11840
▁istedadlı	-11841
mərtəbəli	-11842
▁Han	-11843
▁rəyi	-11844
▁evləri	-11845
▁Kürdəmir	-11846
▁əcnəbi	-11847
▁müşavir	-11848
▁Yuxarıda	-11849
▁fərqlənir	-11850
▁Araşdırmalar	-11851
Xan	-11852
luğundan	-11853
▁qətnaməsi	-11854
▁Məhkəməsində	-11855
▁Gec	-11856
▁Yağ	-11857
▁ipək	-11858
▁stab	-11859
▁şiddət	-11860
▁sabitlik	-11861
▁yoxdursa	-11862
▁sistemini	-11863
yr	-11864
▁big	-11865
həb	-11866
▁edam	-11867
▁açılı	-11868
▁aləmdə	-11869
▁meydanç	-11870
xa	-11871
▁3-4	-11872
inist	-11873
▁gimn	-11874
▁hesabla	-11875
▁həkimlər	-11876
▁Türkiyədən	-11877
▁referendum	-11878
▁mill	-11879
▁rəğbət	-11880
▁deyilik	-11881
▁Luk	-11882
▁uje	-11883
▁aləmi	-11884
▁xəbərsiz	-11885
ker	-11886
▁şi	-11887
ləndirən	-11888
▁qoz	-11889
▁şüşə	-11890
▁xəlif	-11891
▁danışa	-11892
▁havaya	-11893
▁yazdım	-11894
ket	-11895
▁otağına	-11896
▁qanunvericiliyə	-11897
▁niyyəti	-11898
▁fasiləsiz	-11899
▁ailələrinə	-11900
▁imkanlarını	-11901
▁ğ	-11902
onik	-11903
yası	-11904
▁biş	-11905
▁heyvanlar	-11906
öhnə	-11907
▁şəf	-11908
▁çəmən	-11909
▁ərazinin	-11910
▁tanınması	-11911
şrəf	-11912
▁çıxmışdı	-11913
▁stansiyası	-11914
Ax	-11915
▁Nex	-11916
▁qiymətlər	-11917
▁fəaliyyətin	-11918
fin	-11919
▁olunsun	-11920
▁Muzey	-11921
ədənkənar	-11922
▁komandiri	-11923
▁təşkilatçılığı	-11924
▁Atatürk	-11925
▁Məhkəmənin	-11926
Facebook	-11927
▁çatanda	-11928
▁zərbələr	-11929
▁kompleksi	-11930
▁Lu	-11931
Əhməd	-11932
▁mavi	-11933
▁siyahıya	-11934
edes	-11935
▁irsi	-11936
ələnin	-11937
▁hazırlamaq	-11938
▁beləcə	-11939
▁tərzdə	-11940
▁azından	-11941
▁məhsulun	-11942
▁muh	-11943
▁Ramil	-11944
▁taraz	-11945
▁təhsilini	-11946
▁İdarəetmə	-11947
▁sektorunun	-11948
▁danışıqları	-11949
▁öldü	-11950
▁seçic	-11951
▁yorul	-11952
pro	-11953
səniz	-11954
▁zərərli	-11955
▁həlledici	-11956
▁olmasaydı	-11957
▁cinayətlər	-11958
ütf	-11959
44	-11960
▁Ağst	-11961
▁Qobu	-11962
▁Təhm	-11963
▁Vida	-11964
▁maye	-11965
▁qədəm	-11966
▁Net	-11967
▁Media	-11968
▁axını	-11969
▁qaydalar	-11970
▁kontingent	-11971
soy	-11972
▁sıf	-11973
▁dəyişdi	-11974
▁hör	-11975
▁bəzək	-11976
▁mətbu	-11977
▁apelyasiya	-11978
▁irad	-11979
▁mövzuda	-11980
▁keçirəcək	-11981
▁vəzifədən	-11982
▁paş	-11983
▁boynuna	-11984
▁deyilmi	-11985
▁Sentyabr	-11986
▁heyvanların	-11987
▁genişləndiril	-11988
▁ref	-11989
▁göyər	-11990
▁qayıq	-11991
▁qaçaq	-11992
▁suallara	-11993
▁Rəsulzadə	-11994
▁ümummilli	-11995
▁Pl	-11996
▁Tim	-11997
▁ilan	-11998
▁nağd	-11999
▁arzusu	-12000
▁yollarla	-12001
IM	-12002
▁fiq	-12003
▁adekvat	-12004
▁bölməsi	-12005
▁52	-12006
▁Hay	-12007
aricə	-12008
▁çölə	-12009
▁dağıt	-12010
▁illərdən	-12011
▁qaldırdı	-12012
.12	-12013
iminal	-12014
▁qaldığı	-12015
▁danışırdı	-12016
но	-12017
▁1998-	-12018
▁İranla	-12019
▁törədilən	-12020
▁ed	-12021
ruktiv	-12022
▁ordeni	-12023
▁pambıq	-12024
▁sazişi	-12025
▁düşəndə	-12026
ologiyanın	-12027
▁Güvən	-12028
▁yığış	-12029
▁əzəmət	-12030
▁oxuyuram	-12031
po	-12032
ANA	-12033
▁tü	-12034
▁Qol	-12035
▁sürən	-12036
▁oyunda	-12037
▁atəşi	-12038
▁manatı	-12039
▁təfərrü	-12040
▁Sat	-12041
▁Klub	-12042
▁Ön	-12043
ublisi	-12044
▁cisim	-12045
▁toyuq	-12046
▁kirayə	-12047
▁əlaməti	-12048
▁köməklik	-12049
;–	-12050
▁VƏ	-12051
▁görünmür	-12052
▁törədilmiş	-12053
İt	-12054
bad	-12055
ester	-12056
▁köhn	-12057
amaatı	-12058
müəyyən	-12059
▁çatmaq	-12060
▁kitabların	-12061
ser	-12062
▁iaşə	-12063
▁yolver	-12064
▁büdcəsi	-12065
▁olmamışdır	-12066
oog	-12067
▁nəc	-12068
oport	-12069
seçkil	-12070
▁reallıq	-12071
▁Cəmiyyəti	-12072
▁verilməsinə	-12073
▁99	-12074
▁2002-	-12075
▁nazik	-12076
▁dənizdə	-12077
beh	-12078
alin	-12079
▁vah	-12080
▁Azərb	-12081
ələndiril	-12082
▁ifadələr	-12083
▁keçirilməsini	-12084
tu	-12085
▁He	-12086
aşın	-12087
alları	-12088
▁mayor	-12089
▁ortada	-12090
▁Administrasiyasının	-12091
▁95	-12092
▁hövz	-12093
▁atəşk	-12094
▁döndü	-12095
▁tütün	-12096
ətlərin	-12097
işlər	-12098
▁cəng	-12099
▁qolu	-12100
▁qarın	-12101
▁evlərin	-12102
▁axın	-12103
▁mənzilin	-12104
OS	-12105
▁məf	-12106
▁səhhət	-12107
nuz	-12108
39	-12109
▁Güc	-12110
▁kain	-12111
▁sülhə	-12112
▁Bilmirəm	-12113
▁teleqram	-12114
▁Britaniyanın	-12115
əkkül	-12116
▁bahar	-12117
▁nemət	-12118
▁Gürcüstana	-12119
▁Bün	-12120
▁seçilir	-12121
▁bölüşdür	-12122
▁nəzəriyyəsi	-12123
▁Prezidentinə	-12124
Tur	-12125
lüyünü	-12126
▁1999-	-12127
▁knyaz	-12128
▁istədim	-12129
▁savadlı	-12130
▁meyar	-12131
▁nahiy	-12132
▁sözçüsü	-12133
▁azaldılması	-12134
▁Gündüz	-12135
▁görüşə	-12136
▁kosmik	-12137
▁maddənin	-12138
AC	-12139
enk	-12140
▁əzbər	-12141
▁gəzdir	-12142
▁zorakılı	-12143
▁istiqaməti	-12144
▁68	-12145
qidi	-12146
▁tələbat	-12147
▁informatika	-12148
▁yığıb	-12149
▁keçdiyi	-12150
▁qanununun	-12151
▁af	-12152
▁Fili	-12153
▁qoşulub	-12154
▁sakinlər	-12155
▁Həqiqətən	-12156
▁diqqətinə	-12157
▁imzaladığı	-12158
▁kommersiya	-12159
▁01	-12160
▁66	-12161
▁Xat	-12162
▁fərd	-12163
aşvili	-12164
▁uzadıl	-12165
▁müddətinin	-12166
▁mütəşəkkil	-12167
▁zək	-12168
▁Qarabağı	-12169
▁Nümayəndə	-12170
▁yollarında	-12171
▁а	-12172
▁80-	-12173
▁sex	-12174
▁Polisi	-12175
▁bildiyi	-12176
▁bilərmi	-12177
▁icrasına	-12178
▁İstehsal	-12179
.07	-12180
ayırdı	-12181
▁kəndinə	-12182
▁təxirəsalınmaz	-12183
dey	-12184
▁inanc	-12185
▁toxunulmaz	-12186
pir	-12187
▁90-	-12188
▁bələdiyy	-12189
Pro	-12190
ütlə	-12191
▁Təl	-12192
▁görmüşəm	-12193
▁xəttində	-12194
mdə	-12195
ləməyə	-12196
▁Sovetinin	-12197
▁qanunları	-12198
▁təmizləmə	-12199
▁öhdəsindən	-12200
▁məsələlərlə	-12201
mələrini	-12202
▁yaşayırdı	-12203
▁ekspertlər	-12204
▁müsəlmanlar	-12205
▁Lit	-12206
▁mak	-12207
▁Vallah	-12208
▁Vaşinqton	-12209
▁Yəh	-12210
▁şax	-12211
▁deyək	-12212
▁üçündür	-12213
▁istiqlal	-12214
▁Məmmədqul	-12215
▁iştirakçılarının	-12216
efi	-12217
▁hansi	-12218
▁səfərə	-12219
▁olacaqlar	-12220
▁ümi	-12221
▁dağın	-12222
▁dünyasının	-12223
adım	-12224
▁Zeynalov	-12225
▁tələblərə	-12226
piada	-12227
▁ekran	-12228
▁alıblar	-12229
▁Mahmudov	-12230
:2	-12231
▁aydındır	-12232
Ölkə	-12233
ləqan	-12234
▁Alı	-12235
▁Cahangir	-12236
namənin	-12237
▁bəhanə	-12238
▁qəzaya	-12239
▁turnir	-12240
▁axırıncı	-12241
▁keçirilmişdir	-12242
mm	-12243
▁qələbəsi	-12244
▁binasında	-12245
▁müqavilənin	-12246
uel	-12247
mama	-12248
▁xoşag	-12249
▁Etibar	-12250
▁günorta	-12251
▁içindən	-12252
▁İxt	-12253
▁Pənah	-12254
▁qalma	-12255
▁otağında	-12256
▁yaradılmasına	-12257
viz	-12258
▁vüs	-12259
▁mərkəzləri	-12260
Ən	-12261
▁asıl	-12262
▁qalxan	-12263
▁soruşdum	-12264
▁qısamüddətli	-12265
▁atı	-12266
▁Gədəbəy	-12267
▁olsunlar	-12268
▁yaradılır	-12269
▁çev	-12270
▁Qiymət	-12271
▁miqyas	-12272
▁saxlanması	-12273
▁yığı	-12274
▁1989-	-12275
▁Məcnun	-12276
▁küçədə	-12277
▁dissert	-12278
▁necədir	-12279
▁vurulan	-12280
▁önc	-12281
▁Polş	-12282
▁yadına	-12283
▁torpaqların	-12284
qoy	-12285
ahah	-12286
▁Far	-12287
axçıvan	-12288
Interpress	-12289
▁bərabərdir	-12290
ağıl	-12291
▁ərə	-12292
üstan	-12293
▁Səfəvi	-12294
▁dostlar	-12295
▁başından	-12296
▁həllində	-12297
mərəm	-12298
İsrail	-12299
▁Kərbəl	-12300
▁obyektləri	-12301
▁Abituriyent	-12302
Br	-12303
lasa	-12304
oyev	-12305
▁Len	-12306
▁1996-	-12307
▁Fikrət	-12308
▁tərəqq	-12309
▁hökmdarı	-12310
▁Qanununun	-12311
▁rəhbərliyinə	-12312
do	-12313
▁əlli	-12314
▁yollarını	-12315
▁Oy	-12316
▁ötüb	-12317
▁suvar	-12318
▁görüşün	-12319
▁yaşamağa	-12320
▁işçilərin	-12321
unə	-12322
edin	-12323
▁Eyn	-12324
▁ciz	-12325
▁qəfil	-12326
▁ölkədir	-12327
▁dəqiqədə	-12328
▁verilməyib	-12329
▁Me	-12330
kəsən	-12331
▁tövsiy	-12332
▁dəyişməsi	-12333
lyud	-12334
əsuvar	-12335
▁Gəlin	-12336
▁dəhlizi	-12337
▁çarpayı	-12338
▁Cümhuriyyətinin	-12339
▁Maq	-12340
▁qurulub	-12341
▁saatdan	-12342
▁qonaqlar	-12343
▁yüksəlib	-12344
▁Amerikada	-12345
yət	-12346
▁Sax	-12347
aqlıq	-12348
▁trav	-12349
▁elmlər	-12350
▁hüquqa	-12351
▁populyar	-12352
▁şiddətli	-12353
▁78	-12354
acar	-12355
▁Həbib	-12356
▁pulları	-12357
▁İnstitutu	-12358
abır	-12359
▁Gər	-12360
▁YAP	-12361
▁şərik	-12362
▁məhsullar	-12363
▁əvv	-12364
▁təhlükəsizliyin	-12365
▁yolverilməz	-12366
198	-12367
mez	-12368
▁(7	-12369
alib	-12370
▁səsə	-12371
▁kölgə	-12372
Havanın	-12373
▁İndiki	-12374
▁şəxsiyyəti	-12375
ts	-12376
tov	-12377
▁verim	-12378
▁ağlına	-12379
▁Dərbənd	-12380
▁mübarək	-12381
▁zamanın	-12382
▁məktəblər	-12383
▁demokratiya	-12384
▁Os	-12385
bəyov	-12386
▁Sist	-12387
▁stabil	-12388
▁Mənz	-12389
▁əlbir	-12390
▁predmet	-12391
▁yazılar	-12392
▁bağlamaq	-12393
Qəb	-12394
vey	-12395
sarı	-12396
▁küs	-12397
bucaq	-12398
asiyanı	-12399
▁ailələri	-12400
▁şəhərindəki	-12401
EN	-12402
mişli	-12403
ürücü	-12404
▁Nağıyev	-12405
▁hüceyrə	-12406
▁mahiyyət	-12407
▁cəmiyyətə	-12408
axıl	-12409
▁sütunu	-12410
akan	-12411
meni	-12412
▁yoxa	-12413
▁azarkeş	-12414
▁yazılır	-12415
▁yetirir	-12416
▁əlaqədə	-12417
▁məşqçisi	-12418
FHN	-12419
▁(9	-12420
▁İnt	-12421
▁Nexlyud	-12422
▁əməlləri	-12423
▁texnologiya	-12424
▁did	-12425
▁iyr	-12426
▁Müəyyən	-12427
əzən	-12428
▁gözləmək	-12429
amma	-12430
açan	-12431
ərsə	-12432
▁ifaçı	-12433
▁ispan	-12434
asındadır	-12435
▁tələblər	-12436
▁Pek	-12437
durlar	-12438
▁Rumın	-12439
▁Venes	-12440
▁sözüm	-12441
▁olmadığından	-12442
ga	-12443
sevər	-12444
▁sərxoş	-12445
▁nöqteyi	-12446
▁binasına	-12447
▁seçkilərində	-12448
adiz	-12449
▁tədqiqatlar	-12450
OL	-12451
ƏY	-12452
▁yaşaya	-12453
▁dayandırılıb	-12454
▁ictimaiyyəti	-12455
İki	-12456
▁Dmit	-12457
▁fikrində	-12458
▁buğda	-12459
▁rəhbərinin	-12460
aber	-12461
▁baba	-12462
gündüz	-12463
▁Strat	-12464
▁adlarını	-12465
▁doğrudur	-12466
▁sərhəddə	-12467
▁istiqamətlərdə	-12468
rix	-12469
unlar	-12470
▁sizinlə	-12471
to	-12472
▁guş	-12473
məsinlər	-12474
▁tikilib	-12475
▁cansağlığı	-12476
▁səbəblərdən	-12477
ləb	-12478
▁Şar	-12479
▁Cəbh	-12480
təhsil	-12481
▁Elman	-12482
▁məskən	-12483
▁torpaqlarının	-12484
Ötən	-12485
Kitab	-12486
sanız	-12487
▁TASS	-12488
dol	-12489
mail	-12490
▁mer	-12491
▁etiq	-12492
▁əvvəldən	-12493
▁Qış	-12494
▁tim	-12495
▁yaddan	-12496
▁qrupuna	-12497
▁əməkdaşlığ	-12498
yik	-12499
▁To	-12500
▁Məmmədə	-12501
▁prezidentin	-12502
▁quc	-12503
▁Camaat	-12504
▁üsulla	-12505
▁verildiyi	-12506
▁müzakirəsi	-12507
▁sərhədində	-12508
▁toplanmış	-12509
idan	-12510
▁tuf	-12511
▁dönüş	-12512
▁qızım	-12513
▁darmada	-12514
▁gəlinir	-12515
▁yaratmışdır	-12516
itet	-12517
▁Sevinc	-12518
▁mineral	-12519
tərəm	-12520
ülərək	-12521
▁Nobel	-12522
▁plana	-12523
▁Bilirsiniz	-12524
▁06	-12525
▁qırğın	-12526
▁seminar	-12527
▁kəndlərində	-12528
mazdı	-12529
▁türklərin	-12530
▁bildirirəm	-12531
▁Məl	-12532
▁korrupsiya	-12533
azhttps	-12534
▁xərclər	-12535
▁cinayəti	-12536
uar	-12537
▁Korey	-12538
lüyündə	-12539
▁avtomat	-12540
▁dəstəyini	-12541
▁edəcəkdir	-12542
:4	-12543
▁laq	-12544
▁boşluq	-12545
▁altındakı	-12546
▁sakinlərinin	-12547
▁əsil	-12548
▁binada	-12549
▁xoşuna	-12550
▁yaradıldı	-12551
▁(6	-12552
▁Təşəkkür	-12553
▁qardaşlıq	-12554
")	-12555
ziz	-12556
▁azalt	-12557
▁namizə	-12558
▁düşmənə	-12559
▁geosiyasi	-12560
▁proseslərin	-12561
▁prinsiplərinə	-12562
▁Pak	-12563
▁Aleks	-12564
▁Rəyasət	-12565
▁təyinat	-12566
▁Təhmasib	-12567
▁ölkələrinə	-12568
▁əlaqədardır	-12569
əvan	-12570
▁Hüm	-12571
▁rubl	-12572
▁Camal	-12573
Dər	-12574
ordan	-12575
▁Nəsib	-12576
▁sirri	-12577
▁Çində	-12578
▁tapmışdır	-12579
▁ard	-12580
▁künc	-12581
▁Əlaq	-12582
ənnə	-12583
▁Anam	-12584
▁Kənan	-12585
məsələn	-12586
▁Yunanıstan	-12587
▁müəyyənləşdiril	-12588
▁Qəl	-12589
▁pas	-12590
rəsmi	-12591
▁1980-	-12592
▁Saray	-12593
▁getmiş	-12594
olsun	-12595
▁tuta	-12596
▁Xırda	-12597
▁maqnit	-12598
▁oxumuşam	-12599
▁mədəniyyətin	-12600
▁İstər	-12601
▁dincəl	-12602
▁xəttinə	-12603
▁Həs	-12604
▁zil	-12605
▁qalası	-12606
▁uzaqda	-12607
▁alırlar	-12608
▁döyüşdə	-12609
▁qarşıya	-12610
▁rastlaş	-12611
▁Allahdan	-12612
▁Sabirabad	-12613
▁sudan	-12614
▁ilində	-12615
▁idarəsi	-12616
▁müştəri	-12617
▁88	-12618
▁AF	-12619
hücum	-12620
ılanda	-12621
▁aldat	-12622
▁mənəv	-12623
▁bazası	-12624
▁tərəqqi	-12625
oper	-12626
▁ödəmək	-12627
▁məqsədyönlü	-12628
test	-12629
▁Guya	-12630
▁axan	-12631
▁iddianın	-12632
▁şəhərlərdə	-12633
eyni	-12634
cabədi	-12635
▁daşınması	-12636
▁Komissiyası	-12637
▁bildirmişdir	-12638
▁vəzifələrini	-12639
▁vü	-12640
▁soz	-12641
▁vida	-12642
▁sürür	-12643
▁səndə	-12644
▁fikrinə	-12645
zin	-12646
iydi	-12647
ulması	-12648
Kon	-12649
insan	-12650
▁Gələn	-12651
▁potensialı	-12652
▁iztir	-12653
▁sülal	-12654
▁mərkəzinin	-12655
oin	-12656
▁axtarır	-12657
▁açılışı	-12658
▁qalırdı	-12659
▁biləcəklər	-12660
▁vilayətində	-12661
33	-12662
▁Kil	-12663
dırsa	-12664
elosi	-12665
▁iliş	-12666
▁hiylə	-12667
▁administr	-12668
▁torpaqlar	-12669
▁Axır	-12670
sizdir	-12671
cil	-12672
▁Zöh	-12673
darlıq	-12674
məzdən	-12675
▁Kremlin	-12676
▁namizədi	-12677
▁barelinin	-12678
▁yazmışdır	-12679
▁Test	-12680
▁aparacaq	-12681
▁dənizinin	-12682
▁alınmışdır	-12683
Çünki	-12684
▁ilahi	-12685
▁Əşrəf	-12686
▁aspekt	-12687
▁qalxır	-12688
▁8,	-12689
▁Çək	-12690
▁Qriqor	-12691
▁Federal	-12692
▁düşünmür	-12693
▁yüksəkdir	-12694
təl	-12695
▁manda	-12696
▁oxudum	-12697
▁sistemin	-12698
▁Ta	-12699
▁186	-12700
▁Bəhr	-12701
▁Dmitri	-12702
▁Demokratik	-12703
▁məqsədləri	-12704
▁prosesləri	-12705
▁sinə	-12706
▁Ürəy	-12707
▁1919-	-12708
▁Padşah	-12709
▁gedim	-12710
▁keçirə	-12711
▁medalı	-12712
▁İnternet	-12713
▁liderləri	-12714
▁əlamətdar	-12715
.11	-12716
ure	-12717
əza	-12718
▁peyk	-12719
▁Məgər	-12720
▁bölüm	-12721
▁Gələcək	-12722
▁vəzifələr	-12723
▁yekunlaşdır	-12724
▁payına	-12725
▁darmadağın	-12726
▁deyəcəklər	-12727
▁mahiyyətini	-12728
▁əlamətləri	-12729
▁şagirdlərin	-12730
pik	-12731
▁tek	-12732
▁balam	-12733
▁qazanan	-12734
▁yaxınlığındakı	-12735
▁sək	-12736
▁cəhdi	-12737
▁bazarı	-12738
St	-12739
▁Faiq	-12740
▁neyn	-12741
▁pyes	-12742
▁güclə	-12743
▁aktris	-12744
▁atdığı	-12745
▁hamısının	-12746
dırdı	-12747
▁Balak	-12748
▁fizik	-12749
▁öldürüb	-12750
▁Müzəffər	-12751
▁xadimləri	-12752
dərə	-12753
▁xanı	-12754
▁Ruslan	-12755
▁vallah	-12756
▁Problem	-12757
qr	-12758
▁həftədə	-12759
▁normaları	-12760
▁sözündən	-12761
▁kommunist	-12762
şey	-12763
ləşən	-12764
▁növbə	-12765
▁mediada	-12766
▁manatlıq	-12767
▁hazırlanır	-12768
qət	-12769
▁yuxudan	-12770
▁adamlara	-12771
▁getdilər	-12772
▁yazmışam	-12773
▁mühiti	-12774
▁səviyyəyə	-12775
zaman	-12776
▁aciz	-12777
▁Elmar	-12778
siyasından	-12779
▁olmamalıdır	-12780
pdf	-12781
▁yanı	-12782
▁təxliyə	-12783
6)	-12784
▁87	-12785
oogle	-12786
▁dialekt	-12787
▁sübutlar	-12788
▁əsgərləri	-12789
▁tabeliyində	-12790
AX	-12791
▁09	-12792
Hesab	-12793
əlməz	-12794
▁həddən	-12795
▁hərbçi	-12796
▁miqrant	-12797
▁qapının	-12798
naq	-12799
▁dəyişmək	-12800
▁razılaşma	-12801
▁müəssisəsi	-12802
ation	-12803
▁qurtul	-12804
▁şöbəsi	-12805
▁deyiblər	-12806
▁işlədiyi	-12807
▁ərazilərinin	-12808
Zər	-12809
▁Sir	-12810
▁Astara	-12811
▁nəzarətə	-12812
▁quruculuğu	-12813
▁məktubda	-12814
▁qiymətləndirmə	-12815
▁fan	-12816
▁disp	-12817
▁alban	-12818
▁dəhşət	-12819
▁mühakimə	-12820
--	-12821
ışlar	-12822
▁Talıb	-12823
▁qaçdı	-12824
▁yandan	-12825
▁verməyi	-12826
▁İrandan	-12827
▁azalması	-12828
▁profilaktik	-12829
ped	-12830
▁pir	-12831
▁Yerin	-12832
▁sizdə	-12833
Görüşdə	-12834
▁amillər	-12835
▁ordunun	-12836
səl	-12837
ığa	-12838
▁arıq	-12839
▁demir	-12840
▁satır	-12841
▁Tərəflər	-12842
▁VI	-12843
▁Fevr	-12844
▁əsla	-12845
▁anlamaq	-12846
▁öldürülüb	-12847
▁hid	-12848
▁məyus	-12849
▁camaatı	-12850
▁qərəzli	-12851
aşkar	-12852
▁fəth	-12853
▁bürünc	-12854
▁iddiası	-12855
▁odu	-12856
▁həmkarı	-12857
▁sabitliyin	-12858
ğac	-12859
▁Bilirəm	-12860
▁bütövlüyünün	-12861
ON	-12862
car	-12863
▁Göygöl	-12864
▁sammit	-12865
▁müəllimə	-12866
▁(8	-12867
▁Sib	-12868
▁epiz	-12869
▁Düşün	-12870
▁lirik	-12871
▁edərdi	-12872
▁bilmirsən	-12873
viş	-12874
▁ök	-12875
▁Qum	-12876
▁orden	-12877
▁canını	-12878
▁övladları	-12879
▁adlandırılan	-12880
▁Vəzir	-12881
▁Sonralar	-12882
▁istəyənlər	-12883
tel	-12884
▁Ür	-12885
▁daima	-12886
▁arxayın	-12887
ürük	-12888
▁Qazan	-12889
diyədək	-12890
lanacaq	-12891
▁ərazini	-12892
▁Fələstin	-12893
▁Beh	-12894
▁darvaz	-12895
▁davamı	-12896
▁qorxur	-12897
sü	-12898
▁51	-12899
▁donan	-12900
▁çayın	-12901
▁Soveti	-12902
▁verilə	-12903
▁dərslik	-12904
▁mode	-12905
▁hədəfə	-12906
▁tranzit	-12907
▁oyunları	-12908
▁Biləsuvar	-12909
▁Ed	-12910
əffüs	-12911
▁ikili	-12912
larınız	-12913
▁böhtan	-12914
▁qoymuş	-12915
▁xaricə	-12916
▁döyüşlər	-12917
ken	-12918
ASAN	-12919
acıq	-12920
▁Fer	-12921
▁sözə	-12922
▁istəsə	-12923
▁Şəhərin	-12924
▁göndərir	-12925
▁insident	-12926
▁etdiyiniz	-12927
ange	-12928
▁digəri	-12929
▁səmərəl	-12930
▁79	-12931
▁disk	-12932
▁için	-12933
▁dəyən	-12934
▁binalar	-12935
▁kommunikasiya	-12936
.5	-12937
▁Yad	-12938
əffüz	-12939
▁ağzını	-12940
▁məqsədəuyğun	-12941
▁icbari	-12942
▁balları	-12943
SA	-12944
məyini	-12945
larımın	-12946
▁Qlobal	-12947
▁gecələr	-12948
▁köçkünlərin	-12949
▁jurnalistlər	-12950
oza	-12951
tek	-12952
▁10,	-12953
▁günahı	-12954
▁yeməyi	-12955
▁məharət	-12956
▁qül	-12957
▁yur	-12958
▁xörək	-12959
▁şeytan	-12960
▁verməklə	-12961
adanın	-12962
▁müqəd	-12963
▁sərin	-12964
▁plenar	-12965
▁məscidi	-12966
kül	-12967
▁Ravik	-12968
▁kubok	-12969
▁təkam	-12970
lardakı	-12971
▁səssiz	-12972
▁köçürülməsi	-12973
▁Fəqət	-12974
▁zəman	-12975
▁tenden	-12976
sis	-12977
alıyıq	-12978
▁Maddə	-12979
▁canım	-12980
▁təhrif	-12981
▁İdarəsinə	-12982
▁növbədənkənar	-12983
itasiya	-12984
▁Facebook	-12985
▁başladığı	-12986
▁Es	-12987
▁göyə	-12988
▁hind	-12989
▁əmtə	-12990
malarına	-12991
▁yenidənqurma	-12992
.2020	-12993
çılara	-12994
▁narazılı	-12995
▁oxuyanda	-12996
▁saxlanılaraq	-12997
▁Bizans	-12998
adisənin	-12999
▁çəkiliş	-13000
▁həmvətən	-13001
▁şəhərindən	-13002
▁danışıqlara	-13003
▁gətirilməsi	-13004
uni	-13005
çala	-13006
▁Təsad	-13007
▁Sonuncu	-13008
▁Dağıstan	-13009
▁seçilməsi	-13010
▁müraciətlər	-13011
▁nef	-13012
▁tuturdu	-13013
▁zonasında	-13014
▁yaxınlaşıb	-13015
▁Bit	-13016
▁Məhəm	-13017
▁səmim	-13018
▁xeyri	-13019
▁başıma	-13020
▁gəlmədi	-13021
▁xilasetmə	-13022
▁Ərəbistanı	-13023
▁müc	-13024
▁brif	-13025
▁Məqsəd	-13026
▁qızını	-13027
▁sağlamlığı	-13028
▁tacir	-13029
▁səadət	-13030
▁Telefon	-13031
▁düşürdü	-13032
▁İsrailə	-13033
▁intellektual	-13034
▁fikrə	-13035
▁qüvvət	-13036
▁sistemli	-13037
▁uyğundur	-13038
çib	-13039
▁ch	-13040
▁mi	-13041
abəy	-13042
uyur	-13043
ərəf	-13044
lasda	-13045
▁şərəfli	-13046
▁'	-13047
▁dun	-13048
emiya	-13049
▁Özüm	-13050
▁testi	-13051
▁Aralıq	-13052
▁kubmetr	-13053
▁suverenliyi	-13054
▁iqtisadiyyatının	-13055
▁Bülbül	-13056
▁oluram	-13057
▁Kərimli	-13058
▁Beyləqan	-13059
▁ünvanına	-13060
▁ölkəsində	-13061
hüquqi	-13062
▁qərarının	-13063
▁ukraynalı	-13064
▁əhəmiyyətə	-13065
▁dövlətlərinin	-13066
abul	-13067
▁hop	-13068
▁Volo	-13069
▁qadınlara	-13070
layırlar	-13071
▁əsaslanaraq	-13072
▁faciə	-13073
▁arasına	-13074
▁etdirdi	-13075
▁yast	-13076
▁Zirvə	-13077
▁rəmzi	-13078
▁yolların	-13079
▁komponent	-13080
▁yollarının	-13081
▁keçirildiyi	-13082
lop	-13083
▁tun	-13084
▁ölə	-13085
▁Səid	-13086
▁qaran	-13087
▁nəticələnən	-13088
▁minnətdarlığını	-13089
TMT	-13090
ələng	-13091
▁2025-	-13092
▁Toğrul	-13093
▁hündürlüyü	-13094
▁məktəbində	-13095
▁məntəqəsində	-13096
ümət	-13097
▁lək	-13098
Quliyev	-13099
▁əyləncə	-13100
▁gəlirləri	-13101
▁əsaslanır	-13102
roz	-13103
▁110	-13104
▁emalı	-13105
▁kimde	-13106
▁qoruyur	-13107
▁paylaşıb	-13108
▁hərəkətdə	-13109
▁müsəlmanların	-13110
ilov	-13111
▁alay	-13112
▁kitabi	-13113
▁Səhmdar	-13114
ücü	-13115
▁təntənəli	-13116
▁müharibəni	-13117
IL	-13118
▁təhlili	-13119
▁siyahısına	-13120
▁1,5	-13121
▁Sah	-13122
▁ölmüş	-13123
▁regionun	-13124
▁proqramları	-13125
▁AS	-13126
▁İsf	-13127
▁etsək	-13128
▁səliq	-13129
▁sərmayə	-13130
▁dünyadan	-13131
▁Kimin	-13132
▁Mariya	-13133
▁Prokurorluq	-13134
rının	-13135
▁mühasirəyə	-13136
▁məsələlərdən	-13137
▁perspektivləri	-13138
▁Budur	-13139
▁olmaqdan	-13140
▁bl	-13141
ronom	-13142
▁Evin	-13143
▁salamat	-13144
ayim	-13145
▁xəy	-13146
▁çiyn	-13147
ayacaq	-13148
▁qurulan	-13149
▁əhalini	-13150
▁formalaşması	-13151
baba	-13152
▁Həz	-13153
kəndər	-13154
▁oturdu	-13155
▁şagirdlər	-13156
pen	-13157
▁na	-13158
▁oxuyun	-13159
▁yazmağa	-13160
▁göstərmiş	-13161
▁fin	-13162
▁pişik	-13163
▁saytı	-13164
dilməsi	-13165
▁qalmır	-13166
▁hadisələrə	-13167
▁deli	-13168
▁çəkə	-13169
▁Mələk	-13170
▁dayaq	-13171
▁sultan	-13172
laşdırır	-13173
▁ayaqları	-13174
▁iddiaları	-13175
əə	-13176
Siz	-13177
ras	-13178
▁ləh	-13179
ellim	-13180
▁Qoşul	-13181
▁israr	-13182
▁kanalı	-13183
▁Başa	-13184
▁maraqla	-13185
▁addımları	-13186
▁dövlətinə	-13187
▁normalarının	-13188
alis	-13189
ole	-13190
▁Karl	-13191
▁hərəkatı	-13192
▁yaxşılaş	-13193
▁ölkələrindən	-13194
▁69	-13195
▁Ney	-13196
▁ind	-13197
alama	-13198
▁Slov	-13199
▁cümə	-13200
▁La	-13201
▁Bugün	-13202
▁əcnəb	-13203
▁reyestr	-13204
▁xarakterik	-13205
Kərim	-13206
▁cərəy	-13207
▁qızları	-13208
▁keçirilməsinin	-13209
Mil	-13210
▁Şumer	-13211
▁həbsdə	-13212
▁bəndinə	-13213
▁iztirab	-13214
larındakı	-13215
▁komandanın	-13216
TR	-13217
▁fel	-13218
tanın	-13219
▁Kubok	-13220
▁Sankt	-13221
▁Musiqi	-13222
▁oxşayır	-13223
▁ömrünün	-13224
uan	-13225
Bank	-13226
▁Aqil	-13227
▁Səfəv	-13228
ilərkən	-13229
▁xoşagəlməz	-13230
▁vətənpərvərlik	-13231
lərdəki	-13232
yah	-13233
▁red	-13234
▁tıx	-13235
karlar	-13236
Hörmətli	-13237
cell	-13238
lere	-13239
▁hökmran	-13240
▁xüsusda	-13241
▁adlandırıb	-13242
fisi	-13243
▁Məşədi	-13244
▁etdiyinə	-13245
larımızdan	-13246
ıs	-13247
Gül	-13248
▁Məclisi	-13249
▁sıxışdır	-13250
▁yaxınlıq	-13251
humu	-13252
▁Bos	-13253
▁siç	-13254
götür	-13255
▁azalır	-13256
▁Müqavil	-13257
▁rusların	-13258
ləşdirilir	-13259
HP	-13260
▁Toy	-13261
alına	-13262
▁Dərs	-13263
cağını	-13264
iterror	-13265
▁səhifə	-13266
▁Çovdar	-13267
▁Moldova	-13268
▁Deyirlər	-13269
▁diaqnozu	-13270
▁öldürmək	-13271
razı	-13272
▁samit	-13273
▁görsün	-13274
▁olunmasında	-13275
surs	-13276
▁Bək	-13277
▁çəp	-13278
mizdən	-13279
▁nəslin	-13280
muşdular	-13281
▁çoxları	-13282
▁istifadəsinə	-13283
▁keçirilməsində	-13284
Man	-13285
▁Buy	-13286
▁Yarım	-13287
▁evlər	-13288
▁varlıq	-13289
▁maksimal	-13290
▁göstərərək	-13291
Aİ	-13292
aydın	-13293
ləşdi	-13294
▁uğram	-13295
▁oluruq	-13296
▁sırada	-13297
▁General	-13298
tın	-13299
▁Birgə	-13300
▁klubunun	-13301
▁danışarkən	-13302
▁yayılmasının	-13303
alım	-13304
▁nig	-13305
▁kimlər	-13306
▁rekord	-13307
▁sübuta	-13308
▁ətrafına	-13309
▁pandemiyası	-13310
▁alver	-13311
▁düşdüyü	-13312
▁Saak	-13313
▁qaqa	-13314
▁gözünə	-13315
▁dəstəyə	-13316
▁Məlumatda	-13317
▁əsərlərini	-13318
▁AŞ	-13319
▁ağs	-13320
▁kövr	-13321
▁Abdullah	-13322
▁Ağcabədi	-13323
▁Rüstəmov	-13324
▁görürsən	-13325
▁söyləyir	-13326
▁tələffüz	-13327
▁zərərçək	-13328
▁ölkədəki	-13329
▁96	-13330
▁Qax	-13331
▁VII	-13332
ərgiz	-13333
əncama	-13334
▁Premyer	-13335
▁qorxulu	-13336
▁sərhədlərin	-13337
▁əsərlərinin	-13338
▁islahatların	-13339
düşt	-13340
arəng	-13341
▁fabrik	-13342
▁səyləri	-13343
▁dəyişikliyi	-13344
▁itirmiş	-13345
▁olmasıdır	-13346
▁Ukraynadakı	-13347
Dədə	-13348
larin	-13349
asınız	-13350
▁əqidə	-13351
▁dövriyyəsi	-13352
orandum	-13353
belə	-13354
▁adın	-13355
▁Dayan	-13356
▁Məktub	-13357
▁plastik	-13358
▁ayaqqabı	-13359
▁gözəldir	-13360
▁narazılıq	-13361
cam	-13362
▁azca	-13363
əmləkə	-13364
▁Sadiq	-13365
▁marağı	-13366
▁çıxmağa	-13367
▁tərəfini	-13368
▁şəbəkədə	-13369
▁gözləyirdi	-13370
eberler	-13371
▁Avrasiya	-13372
▁Qüvvələrin	-13373
▁valideynləri	-13374
7)	-13375
▁74	-13376
adrid	-13377
▁sorğ	-13378
▁dənizin	-13379
▁səninlə	-13380
▁ortalarında	-13381
▁Ərz	-13382
▁cəld	-13383
▁dron	-13384
▁müsabiqə	-13385
▁müstəntiq	-13386
▁olunmaqla	-13387
əcən	-13388
▁sars	-13389
▁yerlərinin	-13390
▁84	-13391
Ancaq	-13392
▁fərz	-13393
▁eneri	-13394
▁girir	-13395
▁etmirlər	-13396
▁həqiqətə	-13397
▁çevriliş	-13398
▁dekabrında	-13399
İnter	-13400
dükdən	-13401
inizdə	-13402
▁karvan	-13403
▁nümunələr	-13404
▁qalıqları	-13405
.3	-13406
xor	-13407
▁Asif	-13408
▁odun	-13409
▁dindar	-13410
▁görürdü	-13411
▁magistr	-13412
ıy	-13413
ect	-13414
▁Serj	-13415
▁peyda	-13416
▁prosesə	-13417
▁binaların	-13418
▁edilməməsi	-13419
▁Kaf	-13420
ininin	-13421
▁tatar	-13422
▁Ənvər	-13423
▁brifinq	-13424
▁ayrılmaz	-13425
▁birindən	-13426
▁Hüseynovun	-13427
cüm	-13428
Əvvəl	-13429
▁fermer	-13430
▁modern	-13431
malarının	-13432
sta	-13433
lüklə	-13434
▁alimi	-13435
İsmayıl	-13436
▁həkimi	-13437
▁ildönümü	-13438
▁Ulenşpigel	-13439
▁göndərilməsi	-13440
nen	-13441
▁gic	-13442
risti	-13443
▁Fars	-13444
▁Qusar	-13445
▁bölgənin	-13446
▁olmuşlar	-13447
▁çəkilməsi	-13448
▁ölkələrlə	-13449
əcik	-13450
▁atalar	-13451
▁Görəsən	-13452
▁kifayətlən	-13453
▁əməliyyatların	-13454
çika	-13455
▁nök	-13456
▁qurğ	-13457
üsünün	-13458
▁girən	-13459
▁heçnə	-13460
▁texnikası	-13461
▁mərhələsinə	-13462
şt	-13463
ülkü	-13464
▁Sonda	-13465
olunmaz	-13466
▁Tbilisi	-13467
▁oynayan	-13468
▁magistral	-13469
▁subyektiv	-13470
▁dələduzluq	-13471
pic	-13472
malara	-13473
▁ərazidən	-13474
▁ayrılması	-13475
▁üzvlərinə	-13476
▁qaq	-13477
▁çatmır	-13478
▁zamanında	-13479
▁uyğunlaşdır	-13480
ue	-13481
yle	-13482
Xalq	-13483
stant	-13484
▁müğənn	-13485
Peterburq	-13486
▁saxlamağa	-13487
▁təsirindən	-13488
BC	-13489
fet	-13490
təs	-13491
▁Kimsə	-13492
▁deyilsə	-13493
▁ixtisası	-13494
▁Macarıstan	-13495
▁qaydalarının	-13496
▁XVI	-13497
andır	-13498
▁yazdı	-13499
▁Bəhram	-13500
ahab	-13501
rinə	-13502
▁Qən	-13503
ərdim	-13504
▁ağlar	-13505
▁istəs	-13506
▁haqları	-13507
▁vasitələrdən	-13508
100	-13509
dəti	-13510
▁Nider	-13511
▁parçası	-13512
▁Hörmətli	-13513
▁vermişəm	-13514
▁qəsd	-13515
▁şöbəsində	-13516
▁respublikada	-13517
PŞ	-13518
Bab	-13519
səyə	-13520
▁apara	-13521
▁filmi	-13522
▁intizam	-13523
▁bağlanması	-13524
▁yükü	-13525
▁Arvad	-13526
▁Şa	-13527
▁Tol	-13528
▁Çağ	-13529
▁şanlı	-13530
▁illərlə	-13531
▁isteyir	-13532
▁məqamda	-13533
▁qanunda	-13534
▁temperaturunun	-13535
▁möhkəmləndirilməsi	-13536
▁Ex	-13537
Real	-13538
▁şəxslərlə	-13539
▁bildirirlər	-13540
umdan	-13541
▁Adət	-13542
▁itaət	-13543
▁hazırıq	-13544
▁ssenari	-13545
▁qəlbində	-13546
▁İrəvanda	-13547
▁inandırıcı	-13548
▁xərclərinin	-13549
SCO	-13550
▁Maraqlı	-13551
▁bənzəyir	-13552
▁məsələlərinə	-13553
▁rayonlarının	-13554
▁Departamentinin	-13555
▁cəf	-13556
▁sez	-13557
Heydər	-13558
▁bəndə	-13559
▁ödəmə	-13560
▁vahidi	-13561
▁xətləri	-13562
▁Elektrik	-13563
▁Hitlerin	-13564
▁bakalavr	-13565
▁səsvermə	-13566
▁Ha	-13567
▁biabır	-13568
▁beşinci	-13569
▁şeirləri	-13570
▁tələbinin	-13571
ləyici	-13572
▁Vidadi	-13573
▁zülmət	-13574
rd	-13575
əxav	-13576
▁arı	-13577
▁Ordubad	-13578
▁ictimaiyyətin	-13579
▁imp	-13580
▁əsrə	-13581
▁qiyam	-13582
▁faktla	-13583
▁təbəssüm	-13584
▁valideynlər	-13585
ann	-13586
azə	-13587
ğım	-13588
▁Qəlb	-13589
ənimət	-13590
▁küçəyə	-13591
▁əsilli	-13592
▁Əməkdar	-13593
▁Şübhəsiz	-13594
▁iclasının	-13595
▁mənbələri	-13596
▁130	-13597
▁gülə	-13598
▁leysan	-13599
▁qızların	-13600
▁abidələri	-13601
▁etibarsız	-13602
▁məğlubiyyət	-13603
▁rez	-13604
▁inşası	-13605
▁Respublikasına	-13606
▁jurnalistlərin	-13607
▁hazir	-13608
▁molla	-13609
Araşdır	-13610
▁saniyə	-13611
▁Bakıdakı	-13612
▁olacağıq	-13613
▁silahlar	-13614
▁körf	-13615
▁xəttinin	-13616
▁fərqlidir	-13617
▁olunmasının	-13618
▁1-2	-13619
▁muzd	-13620
▁alırdı	-13621
▁dinlən	-13622
▁İmişli	-13623
▁yetirən	-13624
▁dəyərini	-13625
▁şəbəkəsi	-13626
▁xəstəlikdən	-13627
▁yerləşdirilməsi	-13628
▁Is	-13629
▁Oxu	-13630
▁cas	-13631
▁məl	-13632
əşəri	-13633
▁çant	-13634
▁insanlarda	-13635
▁bulun	-13636
▁cəbhədə	-13637
▁veririk	-13638
▁qəzetində	-13639
▁dövlətçilik	-13640
▁çətinliklər	-13641
ərsən	-13642
▁kütl	-13643
▁qoyulur	-13644
▁redaktor	-13645
▁təbiətin	-13646
▁buludlu	-13647
▁Bildirilir	-13648
▁Körp	-13649
▁dolğun	-13650
▁Əvvəlki	-13651
▁xalqımız	-13652
▁münasibətlərini	-13653
iyəli	-13654
Dağlıq	-13655
musavat	-13656
əsəvvür	-13657
▁ehtiyatlı	-13658
▁tərəfləri	-13659
▁tapşırılıb	-13660
▁AXC	-13661
▁Sel	-13662
▁laqeyd	-13663
▁hücumundan	-13664
▁səviyyəsini	-13665
▁182	-13666
▁çən	-13667
▁Tələb	-13668
▁həddə	-13669
▁patron	-13670
▁hərbçiləri	-13671
diki	-13672
▁Ker	-13673
▁Ağsu	-13674
▁Dini	-13675
▁nəql	-13676
▁basqın	-13677
siyalara	-13678
▁günədək	-13679
Mənbə	-13680
rinin	-13681
lərinizi	-13682
▁160	-13683
▁sul	-13684
▁əski	-13685
▁Qrupu	-13686
▁müsa	-13687
▁elmin	-13688
▁gücünə	-13689
▁Göstərilən	-13690
atv	-13691
osun	-13692
▁Miq	-13693
▁auditor	-13694
▁inkişafın	-13695
▁sevgil	-13696
▁tənqidi	-13697
▁zərurət	-13698
▁imperiyasının	-13699
▁Əc	-13700
▁örtüy	-13701
▁eləmir	-13702
▁kafedr	-13703
▁mülahiz	-13704
▁olay	-13705
▁sait	-13706
▁göründü	-13707
eviç	-13708
▁Polad	-13709
▁Saleh	-13710
▁işdir	-13711
▁tapdı	-13712
▁gəldik	-13713
▁əsərlərin	-13714
▁yazılmışdır	-13715
əkdən	-13716
▁Nəticə	-13717
▁Xəlilov	-13718
▁hamıdan	-13719
alma	-13720
axın	-13721
təri	-13722
▁Məd	-13723
▁Zav	-13724
▁iyi	-13725
eodal	-13726
▁Çıxış	-13727
▁alıram	-13728
▁qısqan	-13729
mbudsman	-13730
▁haqqını	-13731
▁liberal	-13732
məş	-13733
▁ləğvi	-13734
▁oxudu	-13735
▁Aleksey	-13736
▁çəkməyə	-13737
cel	-13738
anin	-13739
eçen	-13740
ardan	-13741
▁eləmə	-13742
hökumət	-13743
▁qəzası	-13744
▁adamdır	-13745
▁qazıntı	-13746
▁bildirərək	-13747
▁keyfiyyəti	-13748
▁dəstəsinin	-13749
▁başqalarının	-13750
▁tapşırıqları	-13751
▁72	-13752
alığa	-13753
▁müxbir	-13754
▁qoyaraq	-13755
▁tərəddüd	-13756
▁xəstələn	-13757
əmdə	-13758
▁Tamam	-13759
▁ağacın	-13760
▁düşündür	-13761
▁çatmayan	-13762
Yol	-13763
ovski	-13764
çülük	-13765
▁edirem	-13766
▁qərarları	-13767
▁Türkmənistan	-13768
Düş	-13769
aqla	-13770
uyub	-13771
▁Dum	-13772
▁15-20	-13773
▁1970-	-13774
▁psixi	-13775
▁qeyrət	-13776
▁məqsədlər	-13777
▁səlahiyyətlərindən	-13778
ет	-13779
▁yanan	-13780
▁Nəzərə	-13781
▁edərsə	-13782
▁yumruq	-13783
▁xatirəsi	-13784
8)	-13785
abir	-13786
maram	-13787
satqı	-13788
▁200-	-13789
▁bilə	-13790
▁İlahi	-13791
▁sadece	-13792
▁vurğuladı	-13793
▁Allahverdiyev	-13794
səh	-13795
▁Müslüm	-13796
▁dirçəl	-13797
▁səviyyə	-13798
▁İncəsən	-13799
odik	-13800
əxana	-13801
▁Ərdə	-13802
▁Katib	-13803
▁maneə	-13804
▁Norveç	-13805
▁deport	-13806
▁Horadiz	-13807
▁üstəlik	-13808
eta	-13809
sey	-13810
line	-13811
çənd	-13812
▁Dəf	-13813
▁piş	-13814
▁moll	-13815
▁bazara	-13816
▁iranlı	-13817
▁qapısını	-13818
▁möhkəmlən	-13819
süm	-13820
ünd	-13821
▁tüstü	-13822
.09	-13823
▁trib	-13824
▁Xoşbəxt	-13825
▁mülahizə	-13826
▁Ürək	-13827
▁reanim	-13828
▁zirehli	-13829
ommunikasiya	-13830
▁Yat	-13831
▁Diqq	-13832
▁Fəxr	-13833
▁qazandı	-13834
▁virusun	-13835
▁Qırğızıstan	-13836
****	-13837
aşlı	-13838
▁Etir	-13839
▁suları	-13840
▁tənzimlənməsi	-13841
App	-13842
▁184	-13843
Naxçıvan	-13844
İb	-13845
▁(20	-13846
▁Kəm	-13847
▁həcmində	-13848
▁qədərdir	-13849
▁alınmalıdır	-13850
be	-13851
umuzun	-13852
▁dəymiş	-13853
▁oradakı	-13854
▁tanıyan	-13855
▁təzahürü	-13856
▁qiymətini	-13857
▁standartlara	-13858
EL	-13859
UL	-13860
▁İlyas	-13861
▁hallara	-13862
▁görülmüş	-13863
▁ürəyində	-13864
▁dedikləri	-13865
▁hazırladığı	-13866
ат	-13867
gov	-13868
▁qalsa	-13869
Məhkəmə	-13870
çiliyin	-13871
▁artacaq	-13872
▁Qoşulmama	-13873
Yar	-13874
İlk	-13875
▁ni	-13876
▁Ağac	-13877
▁süqut	-13878
▁inteqr	-13879
▁bölgəyə	-13880
▁dəqiqəlik	-13881
▁aydınlaşdır	-13882
ebul	-13883
▁orbit	-13884
▁ömürlük	-13885
▁konstruk	-13886
▁tapşırığ	-13887
▁has	-13888
▁tic	-13889
söhbəti	-13890
▁inanıram	-13891
▁mənimsən	-13892
▁qadağandır	-13893
ırğ	-13894
mədin	-13895
▁bariz	-13896
▁durdu	-13897
▁idarəet	-13898
asiyasını	-13899
▁Ölkəmizdə	-13900
işan	-13901
▁mütər	-13902
▁materi	-13903
▁Mərkəzin	-13904
▁Konstantin	-13905
▁hamilə	-13906
Xeberler	-13907
▁ağırdır	-13908
▁Nazirlik	-13909
▁Mərkəzinə	-13910
▁gön	-13911
damental	-13912
▁neytral	-13913
▁abituriyentlər	-13914
BirlikTeamXeberler	-13915
▁07	-13916
alıd	-13917
▁Şik	-13918
tarix	-13919
▁kütləsi	-13920
lanmasına	-13921
▁imzalanması	-13922
umar	-13923
▁nal	-13924
mayaq	-13925
▁sövq	-13926
▁mənzərə	-13927
▁aldığını	-13928
▁qafil	-13929
▁sütununa	-13930
▁Yaxud	-13931
▁namus	-13932
ləyirdi	-13933
▁təbiəti	-13934
▁aparmağa	-13935
▁güzəştli	-13936
▁qas	-13937
▁miqyasında	-13938
▁münasibətini	-13939
▁xidmətlərinin	-13940
▁Meş	-13941
Artıq	-13942
▁deyilsən	-13943
▁gücləndirmək	-13944
▁Rəis	-13945
▁dəri	-13946
▁ölür	-13947
▁fotoş	-13948
▁illəri	-13949
▁gəlməyə	-13950
▁şəklini	-13951
▁çıxartdı	-13952
▁şirkətlərin	-13953
▁imkanlarının	-13954
:5	-13955
▁9,	-13956
▁lal	-13957
landığı	-13958
▁içməli	-13959
▁kitabç	-13960
▁Məmmədli	-13961
▁dəstəkləyən	-13962
▁məktəblərin	-13963
ESCO	-13964
Qərb	-13965
▁Ail	-13966
▁Dev	-13967
▁təriq	-13968
▁cavabında	-13969
▁mərhələsinin	-13970
▁Aç	-13971
▁bunda	-13972
▁yetim	-13973
▁Arbitra	-13974
▁müddətdən	-13975
▁məsələsinin	-13976
▁problemlərinin	-13977
yum	-13978
▁Do	-13979
▁se	-13980
▁çub	-13981
▁ürəyin	-13982
▁özümüzü	-13983
▁edilməsindən	-13984
ƏH	-13985
ofi	-13986
meti	-13987
▁Pav	-13988
▁mut	-13989
Hərbi	-13990
▁5-10	-13991
▁aşıb	-13992
▁yürüt	-13993
Hacıyev	-13994
asiyent	-13995
▁Məlumdur	-13996
▁düşünmək	-13997
▁əsasları	-13998
▁qarşıdakı	-13999
▁şeydi	-14000
▁istiqamətləri	-14001
▁Kollegiyasının	-14002
qtay	-14003
▁Sav	-14004
▁Xos	-14005
▁irq	-14006
▁əfv	-14007
▁toxunan	-14008
asiyaları	-14009
▁vərəsəlik	-14010
giy	-14011
urq	-14012
▁aram	-14013
▁Bəziləri	-14014
Nur	-14015
biyə	-14016
▁tuş	-14017
▁Əvəz	-14018
▁Talış	-14019
▁seçib	-14020
▁Ağstafa	-14021
▁uzaqdan	-14022
▁arbitrai	-14023
▁tutularaq	-14024
▁Agentliyin	-14025
▁Zaqafqaziya	-14026
stem	-14027
asion	-14028
▁döşə	-14029
▁beyni	-14030
▁örtük	-14031
▁pullar	-14032
▁Qalan	-14033
▁ekstr	-14034
▁eylər	-14035
▁Viktor	-14036
▁elektro	-14037
▁kommunik	-14038
▁qaytarmaq	-14039
▁mənəviyyat	-14040
▁çatışmazlığı	-14041
▁torpaqlarımızın	-14042
?)	-14043
▁Rub	-14044
Səfər	-14045
alyan	-14046
otrop	-14047
▁Kamil	-14048
▁Nisbi	-14049
▁Quran	-14050
▁Yoldaş	-14051
▁qazana	-14052
esk	-14053
yiş	-14054
lavyan	-14055
▁Həmrəy	-14056
▁Parisdə	-14057
▁optimal	-14058
▁formaları	-14059
.08	-14060
▁mədə	-14061
ilirdi	-14062
▁Bağdad	-14063
▁rəsmən	-14064
▁qışqırdı	-14065
salma	-14066
▁Evdə	-14067
▁birinc	-14068
▁keçməyə	-14069
▁energetika	-14070
▁Uy	-14071
▁İmper	-14072
▁karbon	-14073
▁silsilə	-14074
▁transfer	-14075
təd	-14076
iskop	-14077
▁Ehtiy	-14078
▁möcüz	-14079
▁təyinatı	-14080
▁qəhrəmanı	-14081
▁yarandığı	-14082
osti	-14083
▁Kəs	-14084
putnik	-14085
rafiya	-14086
▁əfqan	-14087
▁etiqad	-14088
197	-14089
lada	-14090
▁dəxli	-14091
▁Komitə	-14092
▁bəraət	-14093
▁dilləri	-14094
▁qazanmış	-14095
▁hüquqşünas	-14096
▁inflyasiya	-14097
Ona	-14098
app	-14099
▁Bünyad	-14100
▁Buraxılış	-14101
▁namizədlər	-14102
əyat	-14103
▁Güm	-14104
▁bomba	-14105
▁aparırlar	-14106
▁bölməsində	-14107
▁Çiç	-14108
▁Psix	-14109
▁buda	-14110
Merc	-14111
▁haqsız	-14112
▁modeli	-14113
▁tezdən	-14114
▁Xüsusən	-14115
▁eynidir	-14116
▁br	-14117
▁08	-14118
▁Zam	-14119
əbbəti	-14120
▁Rəhman	-14121
▁olunmaq	-14122
▁cavablar	-14123
▁olduqdan	-14124
▁62	-14125
▁Yalan	-14126
▁lənət	-14127
▁Andrey	-14128
▁avtomatik	-14129
▁siyasətçi	-14130
Sə	-14131
▁cüz	-14132
ızdan	-14133
▁Flor	-14134
▁Prof	-14135
▁aldılar	-14136
▁çəkirdi	-14137
▁Akademiyası	-14138
▁özg	-14139
▁möhür	-14140
▁Əksər	-14141
▁axının	-14142
▁müayin	-14143
▁Baxmayaraq	-14144
▁göstəricisi	-14145
▁ədib	-14146
amanlıq	-14147
▁yığışdır	-14148
▁konfransı	-14149
▁kəndindən	-14150
▁müstəmləkə	-14151
▁qoşunların	-14152
▁çağırışlar	-14153
▁komandasının	-14154
▁ruz	-14155
▁yara	-14156
▁batır	-14157
▁xələl	-14158
▁verilsin	-14159
▁Liqasında	-14160
."	-14161
gedə	-14162
▁Sem	-14163
▁ekv	-14164
▁əzm	-14165
▁Qapı	-14166
▁yığın	-14167
▁ətrafı	-14168
▁ağaclar	-14169
▁bağlanıb	-14170
▁bəyanatda	-14171
XI	-14172
▁Gir	-14173
▁daşnak	-14174
▁vaxtsa	-14175
▁Hələlik	-14176
▁Akademik	-14177
▁Hüseynova	-14178
EK	-14179
alv	-14180
qəm	-14181
▁eşi	-14182
ərrik	-14183
▁Dekabr	-14184
▁saatda	-14185
▁önəmlidir	-14186
▁...	-14187
▁könl	-14188
ressiv	-14189
▁Qəbul	-14190
▁bərəl	-14191
▁Xilasetmə	-14192
▁xəstəliyin	-14193
▁buraxılması	-14194
usa	-14195
ürt	-14196
▁Uş	-14197
evan	-14198
əylə	-14199
▁tol	-14200
▁Onunla	-14201
▁vulkan	-14202
▁yararlı	-14203
▁sanc	-14204
▁uçub	-14205
▁gedin	-14206
▁varlığı	-14207
▁məhdudiyyətlər	-14208
xxx	-14209
▁Lət	-14210
▁şok	-14211
▁olanı	-14212
▁təlimlər	-14213
▁tənəffüs	-14214
▁xeyriyyə	-14215
ezi	-14216
▁bə	-14217
▁bəhan	-14218
▁print	-14219
▁əsrdən	-14220
▁05	-14221
slan	-14222
▁atmağa	-14223
▁geridə	-14224
▁Assambleyasının	-14225
atrı	-14226
▁ucu	-14227
▁hanı	-14228
mümkün	-14229
▁qarşıda	-14230
▁divan	-14231
▁inşaat	-14232
▁şantaj	-14233
irtualaz	-14234
▁ziyanın	-14235
▁gözləyən	-14236
▁qrupların	-14237
▁texnoloji	-14238
▁sahibliyi	-14239
her	-14240
hey	-14241
▁latın	-14242
malarını	-14243
▁işlərlə	-14244
▁əlindəki	-14245
▁qarşıdurma	-14246
▁yayılmışdır	-14247
MƏ	-14248
▁IX	-14249
amiz	-14250
məsidir	-14251
▁silsil	-14252
▁çevrilmişdir	-14253
▁psixoloq	-14254
▁dayanacaq	-14255
▁mütəxəssisləri	-14256
etri	-14257
▁gedərək	-14258
▁sütunundan	-14259
ərd	-14260
▁kağ	-14261
▁Məsi	-14262
▁Xiyab	-14263
▁rejiminə	-14264
▁qazandığı	-14265
▁imtahanında	-14266
▁staj	-14267
naməsinin	-14268
▁qaldığını	-14269
▁başlayanda	-14270
no	-14271
fur	-14272
hisar	-14273
▁Baba	-14274
▁masa	-14275
▁versə	-14276
▁notari	-14277
▁gözünün	-14278
▁etdirəcək	-14279
▁xəbərləri	-14280
müşəm	-14281
osunu	-14282
▁2021	-14283
▁ünsür	-14284
ındadır	-14285
▁azaltmaq	-14286
▁yaradıcılığında	-14287
lic	-14288
▁kolon	-14289
▁qaçmağa	-14290
▁dollardan	-14291
▁qardaşları	-14292
▁nəzarətində	-14293
ita	-14294
ləni	-14295
anyah	-14296
▁üstünü	-14297
açıq	-14298
▁Sün	-14299
Alman	-14300
▁simp	-14301
▁bilmirem	-14302
▁görürlər	-14303
▁başlayıblar	-14304
üsünü	-14305
▁heyətin	-14306
▁mövzular	-14307
▁əllərində	-14308
▁kifayətdir	-14309
▁Rüstəmxanlı	-14310
▁cum	-14311
izadə	-14312
▁ləkə	-14313
▁çevrilməsi	-14314
▁gözlənilməz	-14315
ile	-14316
▁lam	-14317
▁qəbilə	-14318
▁təcrübəli	-14319
qorxu	-14320
▁cərg	-14321
▁işıqlı	-14322
▁dəv	-14323
▁Əsər	-14324
▁tətil	-14325
hatsApp	-14326
▁Təcili	-14327
▁verdik	-14328
▁variantı	-14329
lını	-14330
qument	-14331
▁örnək	-14332
▁mükafatlandır	-14333
▁Oz	-14334
▁Sk	-14335
▁Ala	-14336
▁kömür	-14337
▁İctima	-14338
▁işləmiş	-14339
▁İtaliyanın	-14340
▁Maykl	-14341
▁Nicat	-14342
▁partiyalar	-14343
▁Haqverdiyev	-14344
uzun	-14345
▁dədə	-14346
▁oksi	-14347
▁buxar	-14348
▁içkilər	-14349
▁demişdir	-14350
▁getmişdi	-14351
▁hissəcik	-14352
▁vətəndaşlığı	-14353
Əli	-14354
▁xaç	-14355
▁sxem	-14356
▁Super	-14357
▁idisə	-14358
episkop	-14359
▁kəməri	-14360
Mercedes	-14361
bağ	-14362
eyhan	-14363
▁Ramin	-14364
▁Şəxsi	-14365
▁gücündə	-14366
yəni	-14367
▁şüar	-14368
▁Cəmil	-14369
▁Yaralı	-14370
▁bədəni	-14371
▁yaxşısı	-14372
Cİ	-14373
▁York	-14374
sindən	-14375
▁menim	-14376
▁minib	-14377
asional	-14378
▁yenicə	-14379
▁sənətinin	-14380
▁yoluxması	-14381
▁vəzir	-14382
▁çeşid	-14383
▁başlaması	-14384
▁Lam	-14385
▁ləzzət	-14386
▁satışa	-14387
▁Novruzov	-14388
▁düşmənçilik	-14389
▁turistlərin	-14390
Söz	-14391
▁ağzı	-14392
akəndə	-14393
məzdim	-14394
▁okean	-14395
▁artırdı	-14396
▁yardımın	-14397
▁götürdüyü	-14398
OP	-14399
İŞ	-14400
bab	-14401
cüsü	-14402
▁185	-14403
agirdi	-14404
▁diyar	-14405
ılarkən	-14406
▁bülbül	-14407
▁sahibinin	-14408
▁səylərini	-14409
▁ehtiyatları	-14410
▁vay	-14411
ıldadı	-14412
▁adlar	-14413
▁mende	-14414
▁təmiri	-14415
▁Mülayim	-14416
▁limanın	-14417
▁Təşkilat	-14418
▁göstərişi	-14419
▁Plat	-14420
▁manatın	-14421
▁publisi	-14422
▁ödənişli	-14423
▁vuraraq	-14424
▁deputatlar	-14425
▁fundamental	-14426
▁nəqliyyatın	-14427
▁müəssisələrin	-14428
▁178	-14429
▁Nigar	-14430
▁xidmətin	-14431
▁şəhərini	-14432
▁etdirməyə	-14433
▁Konstitusiyasının	-14434
rüb	-14435
ışıq	-14436
▁olk	-14437
▁dizayn	-14438
▁oğlanın	-14439
▁Qadınlar	-14440
▁hücumları	-14441
▁təsdiqini	-14442
▁məlumatında	-14443
▁obyektlərin	-14444
aşov	-14445
falt	-14446
uyla	-14447
▁esk	-14448
▁viza	-14449
▁etmirdi	-14450
▁qalmadı	-14451
ilərindən	-14452
▁romantik	-14453
▁büdcəsinə	-14454
əllə	-14455
umuzu	-14456
▁ruhi	-14457
▁izləyir	-14458
▁Türkiyəni	-14459
Uşaq	-14460
▁ağı	-14461
▁tav	-14462
ətənin	-14463
▁çəkmə	-14464
▁uzanan	-14465
▁Şuşaya	-14466
▁əmlakı	-14467
▁oynamaq	-14468
▁iştirakçılar	-14469
YP	-14470
▁kərə	-14471
▁məkanında	-14472
iqaz	-14473
▁tərənn	-14474
▁əməlli	-14475
▁toxunub	-14476
▁Elektron	-14477
▁iddialar	-14478
▁Süleymanov	-14479
pt	-14480
rey	-14481
▁Öv	-14482
▁nəzarətdə	-14483
▁mı	-14484
▁Blok	-14485
▁qoyn	-14486
dırmaq	-14487
qırmızı	-14488
▁çalışdı	-14489
▁qonşuluq	-14490
▁dənizində	-14491
▁getdiyini	-14492
▁həmrəylik	-14493
TAC	-14494
ayt	-14495
▁iğ	-14496
▁düç	-14497
▁janr	-14498
▁Sizcə	-14499
▁bayıra	-14500
▁fədakar	-14501
▁Proqramı	-14502
▁miqyasda	-14503
▁98	-14504
▁ocağı	-14505
▁çəkmiş	-14506
▁delimit	-14507
▁estetik	-14508
▁Şuşanın	-14509
▁başlanğıcı	-14510
▁normalarına	-14511
tap	-14512
▁Ağam	-14513
▁mete	-14514
▁sürün	-14515
▁yazırlar	-14516
▁agentliyi	-14517
layst	-14518
▁Axırda	-14519
▁sahənin	-14520
▁düşəcəyi	-14521
▁hökumətinə	-14522
▁hüzur	-14523
▁Nardar	-14524
▁İsveçrə	-14525
▁rayonuna	-14526
▁ədalətsiz	-14527
▁iştirakçılarına	-14528
ace	-14529
uta	-14530
▁Ort	-14531
ınacaq	-14532
▁Səbəb	-14533
▁naxış	-14534
▁anlaşılmaz	-14535
▁imperiyası	-14536
▁alqı	-14537
▁qurult	-14538
▁ehtiras	-14539
▁zərərin	-14540
▁salınmış	-14541
▁götürərək	-14542
US	-14543
▁cahil	-14544
▁edilsə	-14545
▁İncəsənət	-14546
▁gözləyirik	-14547
%,	-14548
▁Lerik	-14549
▁lokal	-14550
▁surəti	-14551
▁keçmişdə	-14552
▁pilotsuz	-14553
▁aktlarının	-14554
▁məsuliyyətinə	-14555
aktika	-14556
kredit	-14557
əqədər	-14558
▁vaqon	-14559
▁qazanır	-14560
▁Məsələləri	-14561
▁tərəfdarları	-14562
Ak	-14563
qon	-14564
▁Plan	-14565
▁xron	-14566
▁Kərəm	-14567
▁Lavrov	-14568
▁kimdən	-14569
▁lazimdi	-14570
▁birləşmələri	-14571
▁qulluqçuların	-14572
MM	-14573
ilərdə	-14574
iyevin	-14575
▁partiyası	-14576
▁Ch	-14577
▁Şe	-14578
aloq	-14579
təpə	-14580
▁Ant	-14581
▁çəki	-14582
laşmaq	-14583
▁saata	-14584
▁səhra	-14585
▁kartof	-14586
▁türkcə	-14587
▁oynayıb	-14588
▁Əbülfəz	-14589
▁Suriyanın	-14590
üdü	-14591
▁Lider	-14592
▁icarə	-14593
▁sarayı	-14594
▁hissəyə	-14595
▁katolik	-14596
▁kənarlaşdır	-14597
▁Nad	-14598
▁sala	-14599
▁hamam	-14600
▁hasar	-14601
lanılan	-14602
▁bəyanatlar	-14603
Meh	-14604
▁aln	-14605
▁cek	-14606
şəhər	-14607
▁jurnalı	-14608
▁xüsusiyyəti	-14609
▁Nazirliyində	-14610
▁Ada	-14611
▁Petr	-14612
▁fərmanı	-14613
▁polisin	-14614
▁yazıram	-14615
ləşməsinə	-14616
▁hallarına	-14617
▁yaxınlaşdı	-14618
inlə	-14619
▁Dram	-14620
▁Məndən	-14621
▁istəyəndə	-14622
▁layiqincə	-14623
▁limanında	-14624
▁qadınları	-14625
▁çalışırıq	-14626
▁vətəndaşlarına	-14627
UA	-14628
▁Yal	-14629
▁əşyalar	-14630
▁kriminal	-14631
▁müəlliflik	-14632
ostra	-14633
▁dikt	-14634
▁oranı	-14635
▁kolxoz	-14636
▁insanlıq	-14637
▁yaxınları	-14638
lövh	-14639
▁Oli	-14640
▁Vit	-14641
▁Fərq	-14642
▁bəndi	-14643
▁satmaq	-14644
▁yazısı	-14645
▁köməkçi	-14646
▁sakitcə	-14647
▁Qəhrəman	-14648
▁formasını	-14649
▁nəticələrinin	-14650
tic	-14651
▁86	-14652
abet	-14653
Azeri	-14654
▁bağı	-14655
▁Şəhr	-14656
▁Elçib	-14657
Tbilisi	-14658
▁Maarif	-14659
▁klubun	-14660
DİM	-14661
▁(10	-14662
▁eni	-14663
▁nənə	-14664
lüyünə	-14665
▁intiq	-14666
▁Madrid	-14667
▁deyirik	-14668
▁təsəlli	-14669
▁dollarlıq	-14670
▁verməyəcək	-14671
▁məntəqələrində	-14672
▁Qut	-14673
▁güldü	-14674
▁Portuq	-14675
▁məzhəb	-14676
▁icarəyə	-14677
▁qorunan	-14678
▁keçirirlər	-14679
▁Məcəlləsində	-14680
MS	-14681
ırt	-14682
eqal	-14683
günə	-14684
▁illə	-14685
orativ	-14686
▁sevdiyi	-14687
▁qanunlar	-14688
▁qaçılmaz	-14689
▁istəmirdi	-14690
▁Peyğəmbərin	-14691
Yaş	-14692
fel	-14693
▁aclıq	-14694
▁səciyyəvi	-14695
▁bölməsinin	-14696
▁torpaqlarda	-14697
▁vəzifələrin	-14698
gan	-14699
▁danis	-14700
▁icazəsi	-14701
▁satılır	-14702
Beynəlxalq	-14703
liklərinin	-14704
▁məhəbbəti	-14705
95	-14706
▁Dair	-14707
ropoli	-14708
▁əlimdən	-14709
▁qurulmuş	-14710
▁).	-14711
▁Buz	-14712
▁anı	-14713
üsünə	-14714
osional	-14715
▁qaçmaq	-14716
▁mənafey	-14717
▁bölgədəki	-14718
▁hərəkatının	-14719
▁göstəriciləri	-14720
med	-14721
▁Raz	-14722
Sabah	-14723
▁düçar	-14724
▁qaçan	-14725
▁bıçaqla	-14726
mayor	-14727
▁Bayr	-14728
▁nöqtə	-14729
▁həddinə	-14730
▁qorxunc	-14731
▁qənaətə	-14732
▁şagirdi	-14733
▁yardımçı	-14734
▁təkbaşına	-14735
▁sərhədinin	-14736
▁Twitter	-14737
▁vəziyyətində	-14738
Lİ	-14739
ial	-14740
▁Hüs	-14741
▁sob	-14742
estri	-14743
▁Oqtay	-14744
▁həcmdə	-14745
▁velosi	-14746
▁ödəyic	-14747
▁təcavüzü	-14748
▁əsərinin	-14749
▁vətəndaşlıq	-14750
▁partiyasının	-14751
▁çıxarılmasını	-14752
Təb	-14753
ESKO	-14754
▁XVIII	-14755
ostradam	-14756
▁ağzında	-14757
▁etdiriləcək	-14758
▁dəyişdirilmədən	-14759
▁feodal	-14760
▁itirən	-14761
▁monast	-14762
▁Aprelin	-14763
▁məqamlar	-14764
▁iddiaçıya	-14765
narə	-14766
imdir	-14767
▁tökül	-14768
▁xiyab	-14769
▁qohumu	-14770
▁Ələkbərov	-14771
▁Bən	-14772
ürsən	-14773
▁tale	-14774
▁Köhnə	-14775
▁ayına	-14776
▁şalvar	-14777
▁banklar	-14778
▁təlimat	-14779
▁mətbuatı	-14780
▁İskəndər	-14781
▁olmadığına	-14782
Sev	-14783
Qanun	-14784
skaya	-14785
alıyev	-14786
▁olandan	-14787
▁Məclisdə	-14788
▁aparırdı	-14789
▁sevindir	-14790
▁inanmıram	-14791
▁müvəffəqiyyət	-14792
Nov	-14793
yıb	-14794
▁çoxdu	-14795
[...]
